<pad>	0
<unk>	0
<s>	0
</s>	0
▁t	-0
▁a	-1
in	-2
he	-3
re	-4
on	-5
er	-6
▁the	-7
▁s	-8
at	-9
or	-10
▁w	-11
nd	-12
▁c	-13
▁o	-14
it	-15
en	-16
is	-17
es	-18
▁f	-19
ing	-20
▁b	-21
ou	-22
ed	-23
▁p	-24
an	-25
al	-26
ar	-27
▁to	-28
▁and	-29
▁in	-30
▁m	-31
▁of	-32
ic	-33
as	-34
▁d	-35
ion	-36
le	-37
om	-38
▁h	-39
il	-40
ent	-41
▁th	-42
ro	-43
ve	-44
▁re	-45
▁l	-46
st	-47
▁e	-48
▁S	-49
▁n	-50
ct	-51
▁T	-52
▁I	-53
▁C	-54
et	-55
▁g	-56
id	-57
ay	-58
▁A	-59
el	-60
▁for	-61
▁is	-62
▁on	-63
ut	-64
ur	-65
ad	-66
▁y	-67
ol	-68
ot	-69
ow	-70
▁be	-71
am	-72
ac	-73
ation	-74
ly	-75
ig	-76
▁M	-77
im	-78
us	-79
ver	-80
ith	-81
▁st	-82
▁you	-83
▁P	-84
ir	-85
▁with	-86
ch	-87
ce	-88
▁B	-89
▁he	-90
▁that	-91
ill	-92
ter	-93
un	-94
..	-95
ul	-96
▁D	-97
ra	-98
▁an	-99
▁W	-100
▁it	-101
▁H	-102
▁as	-103
ers	-104
▁al	-105
em	-106
▁R	-107
▁pro	-108
▁we	-109
▁wh	-110
▁F	-111
se	-112
▁at	-113
pp	-114
if	-115
▁are	-116
ag	-117
▁con	-118
**	-119
th	-120
ri	-121
ke	-122
oo	-123
▁ha	-124
▁com	-125
▁L	-126
res	-127
her	-128
ate	-129
▁The	-130
est	-131
ew	-132
ess	-133
ist	-134
rom	-135
▁N	-136
ment	-137
▁(	-138
igh	-139
op	-140
ore	-141
ity	-142
▁was	-143
▁E	-144
▁G	-145
ld	-146
ab	-147
▁se	-148
ort	-149
▁or	-150
▁ex	-151
▁v	-152
um	-153
oc	-154
▁de	-155
os	-156
art	-157
ive	-158
▁from	-159
qu	-160
ies	-161
and	-162
pe	-163
ant	-164
▁this	-165
▁by	-166
ain	-167
▁r	-168
可以	-169
nt	-170
▁have	-171
ear	-172
▁will	-173
ud	-174
▁O	-175
▁ch	-176
▁su	-177
公司	-178
our	-179
▁J	-180
▁sh	-181
ust	-182
ight	-183
ard	-184
all	-185
iv	-186
The	-187
up	-188
▁le	-189
out	-190
▁wor	-191
red	-192
ome	-193
ge	-194
▁has	-195
ast	-196
▁not	-197
rou	-198
▁pl	-199
我们	-200
▁us	-201
ial	-202
od	-203
gh	-204
▁ab	-205
ak	-206
te	-207
ost	-208
▁can	-209
ell	-210
per	-211
ack	-212
▁your	-213
ice	-214
ould	-215
▁U	-216
ide	-217
工作	-218
ure	-219
ine	-220
▁j	-221
ip	-222
og	-223
▁all	-224
一个	-225
ions	-226
ff	-227
ect	-228
are	-229
进行	-230
ated	-231
▁k	-232
ber	-233
▁ne	-234
pt	-235
产品	-236
ry	-237
▁K	-238
▁sa	-239
▁ad	-240
▁comp	-241
ook	-242
cc	-243
服务	-244
▁up	-245
▁me	-246
ich	-247
orm	-248
age	-249
▁out	-250
▁cl	-251
▁but	-252
ail	-253
▁whe	-254
▁en	-255
▁do	-256
ong	-257
▁their	-258
ress	-259
▁In	-260
...	-261
ake	-262
ther	-263
one	-264
ime	-265
▁our	-266
ind	-267
ia	-268
企业	-269
ie	-270
▁his	-271
▁St	-272
ally	-273
▁Th	-274
ans	-275
ub	-276
▁te	-277
ary	-278
ood	-279
▁work	-280
pl	-281
ous	-282
ace	-283
▁more	-284
▁cont	-285
und	-286
▁my	-287
▁year	-288
ire	-289
▁res	-290
||	-291
ue	-292
▁about	-293
very	-294
iz	-295
ase	-296
able	-297
act	-298
▁inc	-299
▁im	-300
ations	-301
ph	-302
▁who	-303
▁un	-304
▁so	-305
ance	-306
ents	-307
使用	-308
so	-309
▁V	-310
ib	-311
ult	-312
▁one	-313
自己	-314
时间	-315
vel	-316
ame	-317
port	-318
▁they	-319
ite	-320
▁new	-321
▁“	-322
▁man	-323
day	-324
ach	-325
▁off	-326
form	-327
▁go	-328
▁Ch	-329
▁app	-330
技术	-331
ass	-332
ord	-333
ick	-334
ign	-335
ical	-336
erv	-337
du	-338
ap	-339
▁tr	-340
ark	-341
▁been	-342
ount	-343
ep	-344
▁Y	-345
to	-346
中国	-347
ll	-348
av	-349
▁which	-350
ence	-351
ays	-352
reat	-353
ction	-354
ree	-355
需要	-356
设计	-357
▁qu	-358
发展	-359
ild	-360
▁said	-361
管理	-362
ove	-363
own	-364
▁rec	-365
ings	-366
▁also	-367
▁-	-368
ile	-369
ren	-370
ru	-371
▁per	-372
▁time	-373
▁ar	-374
没有	-375
▁dis	-376
ition	-377
▁part	-378
ike	-379
▁sp	-380
安全	-381
ond	-382
ors	-383
通过	-384
▁over	-385
▁ev	-386
▁ag	-387
游戏	-388
▁her	-389
▁other	-390
▁ro	-391
▁sc	-392
ov	-393
fter	-394
▁were	-395
ks	-396
ish	-397
市场	-398
mer	-399
信息	-400
▁pe	-401
就是	-402
提供	-403
大家	-404
oy	-405
ound	-406
fe	-407
ning	-408
ory	-409
▁some	-410
▁had	-411
▁It	-412
▁He	-413
ool	-414
系统	-415
问题	-416
▁kn	-417
lic	-418
oin	-419
vers	-420
ob	-421
活动	-422
设备	-423
ens	-424
ang	-425
生产	-426
irst	-427
▁acc	-428
ian	-429
oll	-430
▁Re	-431
▁comm	-432
ose	-433
▁get	-434
选择	-435
▁pre	-436
项目	-437
▁tw	-438
▁when	-439
专业	-440
▁them	-441
▁any	-442
ough	-443
如果	-444
rough	-445
▁We	-446
▁its	-447
wn	-448
ts	-449
com	-450
▁"	-451
ater	-452
lud	-453
hed	-454
非常	-455
▁spe	-456
什么	-457
old	-458
anc	-459
好的	-460
▁would	-461
▁into	-462
▁am	-463
▁there	-464
很多	-465
iew	-466
ade	-467
ople	-468
▁like	-469
ons	-470
ric	-471
▁than	-472
ck	-473
▁fe	-474
▁what	-475
ne	-476
ities	-477
),	-478
▁how	-479
▁first	-480
情况	-481
ram	-482
ely	-483
****	-484
end	-485
itt	-486
▁need	-487
这个	-488
行业	-489
ink	-490
▁just	-491
▁after	-492
ject	-493
▁includ	-494
ates	-495
▁stud	-496
要求	-497
ational	-498
rent	-499
pport	-500
▁two	-501
tern	-502
相关	-503
▁This	-504
人员	-505
▁prov	-506
▁add	-507
▁people	-508
▁if	-509
--	-510
Th	-511
ual	-512
ss	-513
iss	-514
生活	-515
round	-516
lp	-517
同时	-518
use	-519
ments	-520
add	-521
主要	-522
▁she	-523
ious	-524
平台	-525
▁through	-526
les	-527
是一	-528
▁des	-529
有限	-530
客户	-531
▁help	-532
品牌	-533
ful	-534
▁und	-535
中心	-536
他们	-537
we	-538
enc	-539
▁–	-540
chool	-541
时候	-542
ng	-543
ife	-544
▁fl	-545
以及	-546
不同	-547
内容	-548
方面	-549
amp	-550
▁em	-551
ft	-552
▁ind	-553
▁no	-554
所以	-555
ath	-556
]]	-557
[[	-558
▁back	-559
xt	-560
也是	-561
.-	-562
▁Un	-563
▁years	-564
因为	-565
ily	-566
已经	-567
能够	-568
lect	-569
▁act	-570
....	-571
▁serv	-572
▁bl	-573
质量	-574
工程	-575
aw	-576
▁know	-577
ek	-578
phy	-579
方式	-580
▁under	-581
ating	-582
教育	-583
▁bet	-584
▁play	-585
▁may	-586
▁well	-587
ident	-588
了解	-589
用户	-590
可能	-591
▁bec	-592
formation	-593
▁reg	-594
▁Com	-595
的一	-596
▁inv	-597
▁look	-598
ont	-599
velop	-600
ased	-601
▁tra	-602
pect	-603
uring	-604
但是	-605
hen	-606
ec	-607
ific	-608
ise	-609
hip	-610
▁loc	-611
有限公司	-612
▁make	-613
对于	-614
als	-615
row	-616
olog	-617
价格	-618
更多	-619
环境	-620
ract	-621
ting	-622
▁co	-623
▁imp	-624
▁ph	-625
urn	-626
▁bu	-627
目前	-628
▁only	-629
这样	-630
影响	-631
ward	-632
▁exper	-633
▁fin	-634
根据	-635
▁most	-636
▁every	-637
现在	-638
rit	-639
网站	-640
数据	-641
学生	-642
▁ass	-643
ement	-644
▁cons	-645
材料	-646
).	-647
oth	-648
能力	-649
ience	-650
学习	-651
比较	-652
alth	-653
还是	-654
▁Pro	-655
大的	-656
建设	-657
▁rel	-658
In	-659
功能	-660
aking	-661
ues	-662
fore	-663
都是	-664
重要	-665
处理	-666
”,	-667
具有	-668
手机	-669
arch	-670
rib	-671
▁sec	-672
第一	-673
▁see	-674
ty	-675
ures	-676
▁fam	-677
ork	-678
oun	-679
一定	-680
▁New	-681
▁want	-682
lease	-683
▁&	-684
ices	-685
▁|	-686
ility	-687
科技	-688
▁ac	-689
cial	-690
get	-691
▁use	-692
▁dec	-693
oss	-694
iness	-695
▁start	-696
自己的	-697
gan	-698
▁now	-699
采用	-700
▁rem	-701
国家	-702
一些	-703
ause	-704
unity	-705
eth	-706
man	-707
ied	-708
ics	-709
yst	-710
ange	-711
中的	-712
▁De	-713
投资	-714
▁col	-715
▁min	-716
▁dif	-717
提高	-718
▁where	-719
address	-720
ited	-721
▁team	-722
▁show	-723
孩子	-724
研究	-725
."	-726
▁Wh	-727
ollow	-728
ason	-729
作为	-730
到了	-731
ible	-732
▁these	-733
ative	-734
▁very	-735
bs	-736
部分	-737
▁pr	-738
过程	-739
▁many	-740
ivers	-741
We	-742
▁day	-743
ict	-744
erson	-745
联系	-746
成为	-747
所有	-748
▁good	-749
land	-750
▁could	-751
▁ke	-752
cess	-753
ock	-754
应用	-755
▁produ	-756
▁information	-757
世界	-758
gram	-759
ull	-760
ys	-761
▁mon	-762
▁develop	-763
▁mem	-764
ven	-765
io	-766
方法	-767
▁last	-768
ublic	-769
▁bus	-770
elf	-771
▁here	-772
ank	-773
▁home	-774
ix	-775
ert	-776
pen	-777
健康	-778
ner	-779
ok	-780
▁set	-781
air	-782
需求	-783
出现	-784
any	-785
▁gu	-786
其他	-787
▁read	-788
开始	-789
提升	-790
的人	-791
操作	-792
这些	-793
▁pres	-794
▁ent	-795
hes	-796
▁Ar	-797
不是	-798
以上	-799
发布	-800
▁high	-801
▁bel	-802
ular	-803
==	-804
ww	-805
uch	-806
ces	-807
▁way	-808
效果	-809
▁great	-810
那么	-811
▁art	-812
ash	-813
its	-814
rest	-815
的时候	-816
▁You	-817
控制	-818
irect	-819
的是	-820
▁again	-821
▁att	-822
▁him	-823
▁should	-824
▁lead	-825
。”	-826
view	-827
完成	-828
文化	-829
注意	-830
pr	-831
开展	-832
alk	-833
▁$	-834
ced	-835
▁Al	-836
合作	-837
ik	-838
other	-839
ble	-840
▁own	-841
▁sm	-842
ener	-843
介绍	-844
▁then	-845
ystem	-846
ug	-847
▁pol	-848
▁Le	-849
▁right	-850
ient	-851
▁br	-852
▁sur	-853
▁support	-854
▁made	-855
way	-856
国际	-857
实现	-858
消费	-859
ince	-860
学校	-861
arn	-862
各种	-863
▁Cl	-864
一般	-865
▁take	-866
怎么	-867
▁down	-868
标准	-869
▁being	-870
▁disc	-871
培训	-872
let	-873
roup	-874
获得	-875
▁end	-876
ouse	-877
▁Sh	-878
▁cur	-879
▁life	-880
iel	-881
▁num	-882
▁Se	-883
▁before	-884
chn	-885
▁find	-886
ms	-887
关注	-888
This	-889
▁did	-890
▁follow	-891
经济	-892
▁med	-893
ower	-894
智能	-895
玩家	-896
网络	-897
▁don	-898
如何	-899
▁An	-900
▁long	-901
ax	-902
▁child	-903
▁inte	-904
,”	-905
ah	-906
知道	-907
.”	-908
▁even	-909
▁requ	-910
人的	-911
北京	-912
▁ins	-913
▁gr	-914
比赛	-915
▁call	-916
▁[[	-917
支持	-918
一起	-919
ars	-920
▁vis	-921
城市	-922
.“	-923
led	-924
uc	-925
▁av	-926
▁inst	-927
▁eff	-928
ives	-929
▁report	-930
▁ra	-931
riv	-932
而且	-933
atch	-934
还有	-935
▁trans	-936
汽车	-937
▁care	-938
▁ed	-939
▁count	-940
az	-941
▁school	-942
ata	-943
ave	-944
▁world	-945
ins	-946
app	-947
ital	-948
oint	-949
社会	-950
医院	-951
▁det	-952
▁much	-953
表示	-954
▁inter	-955
治疗	-956
之后	-957
▁Ad	-958
销售	-959
ton	-960
不断	-961
自动	-962
▁diffe	-963
ier	-964
▁ret	-965
▁ser	-966
▁provid	-967
▁week	-968
tt	-969
安装	-970
▁program	-971
arm	-972
▁cre	-973
ather	-974
▁che	-975
▁three	-976
ale	-977
▁while	-978
大学	-979
ets	-980
▁Te	-981
▁post	-982
视频	-983
▁project	-984
或者	-985
资源	-986
▁found	-987
——	-988
解决	-989
uss	-990
▁think	-991
ters	-992
直接	-993
系列	-994
▁around	-995
开发	-996
▁sub	-997
ional	-998
▁business	-999
现场	-1000
▁car	-1001
软件	-1002
体验	-1003
▁because	-1004
不能	-1005
▁such	-1006
au	-1007
个人	-1008
建筑	-1009
ween	-1010
▁And	-1011
read	-1012
▁sign	-1013
业务	-1014
iversity	-1015
分析	-1016
line	-1017
▁those	-1018
riend	-1019
创新	-1020
▁family	-1021
朋友	-1022
发现	-1023
▁month	-1024
其中	-1025
来的	-1026
vern	-1027
ield	-1028
▁cour	-1029
为了	-1030
oh	-1031
▁best	-1032
imes	-1033
bers	-1034
uth	-1035
▁person	-1036
进入	-1037
知识	-1038
不会	-1039
作用	-1040
单位	-1041
ene	-1042
oci	-1043
▁mod	-1044
▁Sc	-1045
一步	-1046
▁open	-1047
▁book	-1048
帮助	-1049
▁each	-1050
▁during	-1051
▁used	-1052
▁run	-1053
rid	-1054
了一	-1055
ered	-1056
ross	-1057
全国	-1058
▁between	-1059
经营	-1060
组织	-1061
▁does	-1062
▁char	-1063
由于	-1064
▁adv	-1065
ology	-1066
ness	-1067
因此	-1068
▁place	-1069
cept	-1070
It	-1071
施工	-1072
min	-1073
▁mark	-1074
基础	-1075
这种	-1076
机构	-1077
疫情	-1078
▁list	-1079
▁system	-1080
结构	-1081
orn	-1082
下载	-1083
老师	-1084
▁som	-1085
Wh	-1086
拥有	-1087
▁top	-1088
▁As	-1089
ired	-1090
来说	-1091
▁str	-1092
▁health	-1093
集团	-1094
akes	-1095
电子	-1096
▁both	-1097
oot	-1098
▁love	-1099
有效	-1100
希望	-1101
ever	-1102
产业	-1103
方案	-1104
ines	-1105
▁plan	-1106
▁hand	-1107
ety	-1108
发生	-1109
▁cent	-1110
包括	-1111
喜欢	-1112
ants	-1113
▁design	-1114
ished	-1115
▁contin	-1116
▁If	-1117
空间	-1118
检查	-1119
ages	-1120
交通	-1121
▁still	-1122
ames	-1123
咨询	-1124
万元	-1125
上的	-1126
ering	-1127
关于	-1128
ple	-1129
▁including	-1130
用于	-1131
国内	-1132
▁sk	-1133
iving	-1134
urs	-1135
atur	-1136
▁sim	-1137
▁For	-1138
▁rep	-1139
ute	-1140
▁ann	-1141
▁fil	-1142
▁She	-1143
__	-1144
▁going	-1145
ved	-1146
meric	-1147
ailable	-1148
上海	-1149
▁number	-1150
oad	-1151
▁appro	-1152
及时	-1153
▁build	-1154
▁lar	-1155
▁Q	-1156
▁manag	-1157
▁iss	-1158
▁bo	-1159
▁del	-1160
der	-1161
”。	-1162
▁prof	-1163
▁ear	-1164
检测	-1165
▁organ	-1166
更加	-1167
ving	-1168
▁though	-1169
患者	-1170
▁#	-1171
▁Ex	-1172
▁form	-1173
ution	-1174
gg	-1175
:“	-1176
在线	-1177
ral	-1178
增加	-1179
ists	-1180
简单	-1181
▁Ind	-1182
新闻	-1183
▁Be	-1184
新的	-1185
这里	-1186
电话	-1187
▁pass	-1188
性能	-1189
不仅	-1190
今天	-1191
模式	-1192
▁students	-1193
ually	-1194
▁happ	-1195
▁resp	-1196
▁group	-1197
Re	-1198
▁different	-1199
微信	-1200
▁next	-1201
基本	-1202
▁few	-1203
正在	-1204
▁process	-1205
▁second	-1206
ern	-1207
He	-1208
▁int	-1209
▁exp	-1210
保护	-1211
▁Cent	-1212
▁current	-1213
ploy	-1214
▁techn	-1215
▁Tr	-1216
▁really	-1217
ps	-1218
▁public	-1219
ways	-1220
特别	-1221
▁Comm	-1222
ittle	-1223
▁gl	-1224
工业	-1225
▁pat	-1226
保证	-1227
▁say	-1228
▁All	-1229
成功	-1230
ared	-1231
▁cr	-1232
一下	-1233
ision	-1234
▁import	-1235
应该	-1236
第二	-1237
▁Pl	-1238
ining	-1239
年的	-1240
▁rece	-1241
加盟	-1242
人民	-1243
▁since	-1244
rist	-1245
这一	-1246
▁feel	-1247
负责	-1248
ize	-1249
▁fun	-1250
▁real	-1251
综合	-1252
▁dist	-1253
ER	-1254
地区	-1255
con	-1256
ruct	-1257
▁Bl	-1258
利用	-1259
免费	-1260
▁main	-1261
显示	-1262
起来	-1263
illion	-1264
aj	-1265
教学	-1266
一直	-1267
▁sl	-1268
宣传	-1269
加工	-1270
▁experience	-1271
▁community	-1272
经验	-1273
▁available	-1274
▁rest	-1275
学院	-1276
▁lot	-1277
▁season	-1278
欢迎	-1279
▁partic	-1280
▁interest	-1281
▁friend	-1282
▁direct	-1283
▁conf	-1284
▁quest	-1285
容易	-1286
制造	-1287
▁cor	-1288
领域	-1289
达到	-1290
▁area	-1291
outh	-1292
▁Americ	-1293
ott	-1294
ling	-1295
▁win	-1296
eng	-1297
ley	-1298
ized	-1299
任何	-1300
▁Res	-1301
代表	-1302
ission	-1303
▁Col	-1304
▁meet	-1305
iver	-1306
▁game	-1307
▁var	-1308
ature	-1309
制作	-1310
水平	-1311
虽然	-1312
你的	-1313
%,	-1314
ior	-1315
。“	-1316
部门	-1317
▁Con	-1318
▁ref	-1319
必须	-1320
▁water	-1321
不要	-1322
积极	-1323
责任	-1324
不过	-1325
▁But	-1326
ee	-1327
是否	-1328
▁result	-1329
▁inf	-1330
orth	-1331
推荐	-1332
体育	-1333
位置	-1334
▁data	-1335
▁invest	-1336
▁University	-1337
厂家	-1338
mm	-1339
优势	-1340
▁exc	-1341
美国	-1342
▁class	-1343
att	-1344
团队	-1345
并且	-1346
rence	-1347
计划	-1348
ients	-1349
▁using	-1350
丰富	-1351
ery	-1352
参加	-1353
运动	-1354
记者	-1355
▁sol	-1356
gy	-1357
▁Ph	-1358
▁perform	-1359
▁same	-1360
sh	-1361
▁bro	-1362
▁working	-1363
reen	-1364
ration	-1365
机械	-1366
urch	-1367
快速	-1368
▁ext	-1369
▁Z	-1370
过程中	-1371
ording	-1372
自然	-1373
考试	-1374
▁four	-1375
做好	-1376
▁‘	-1377
随着	-1378
▁gener	-1379
一样	-1380
带来	-1381
tend	-1382
▁cle	-1383
▁conc	-1384
ccess	-1385
▁things	-1386
▁ter	-1387
▁company	-1388
▁Man	-1389
▁rese	-1390
实际	-1391
▁unt	-1392
rand	-1393
▁def	-1394
▁fac	-1395
▁children	-1396
ember	-1397
▁How	-1398
保障	-1399
ope	-1400
方便	-1401
看到	-1402
分享	-1403
▁expl	-1404
ows	-1405
注册	-1406
▁come	-1407
▁state	-1408
其实	-1409
小编	-1410
▁poss	-1411
交易	-1412
son	-1413
点击	-1414
be	-1415
继续	-1416
最后	-1417
▁mus	-1418
▁little	-1419
▁keep	-1420
存在	-1421
进一步	-1422
vent	-1423
iqu	-1424
room	-1425
▁pos	-1426
▁mov	-1427
ours	-1428
▁days	-1429
AP	-1430
▁They	-1431
科学	-1432
一次	-1433
▁offic	-1434
▁full	-1435
stand	-1436
来源	-1437
结合	-1438
▁small	-1439
购买	-1440
▁too	-1441
mber	-1442
经过	-1443
▁today	-1444
▁tri	-1445
▁ve	-1446
▁val	-1447
vernment	-1448
▁free	-1449
ency	-1450
产生	-1451
关键	-1452
ves	-1453
St	-1454
▁news	-1455
▁head	-1456
重点	-1457
ently	-1458
打造	-1459
稳定	-1460
导致	-1461
持续	-1462
条件	-1463
▁Is	-1464
▁until	-1465
我们的	-1466
全面	-1467
联网	-1468
的话	-1469
//	-1470
建议	-1471
范围	-1472
▁local	-1473
IN	-1474
▁another	-1475
self	-1476
oor	-1477
▁Sp	-1478
▁proper	-1479
▁put	-1480
ged	-1481
然后	-1482
▁event	-1483
ote	-1484
▁ob	-1485
这是	-1486
传统	-1487
装修	-1488
▁always	-1489
▁On	-1490
成本	-1491
今年	-1492
银行	-1493
▁Mon	-1494
joy	-1495
原因	-1496
ality	-1497
保持	-1498
ately	-1499
▁Mar	-1500
ething	-1501
▁old	-1502
ann	-1503
造成	-1504
▁eas	-1505
▁Eng	-1506
thing	-1507
媒体	-1508
▁must	-1509
ody	-1510
▁against	-1511
食品	-1512
aff	-1513
ised	-1514
旅游	-1515
▁big	-1516
ium	-1517
交流	-1518
▁There	-1519
▁level	-1520
之间	-1521
工艺	-1522
▁pract	-1523
精神	-1524
ator	-1525
:-	-1526
参与	-1527
utes	-1528
▁past	-1529
职业	-1530
gin	-1531
▁room	-1532
ird	-1533
med	-1534
▁try	-1535
▁oper	-1536
osp	-1537
▁,	-1538
rem	-1539
表现	-1540
消费者	-1541
▁May	-1542
ron	-1543
▁service	-1544
osed	-1545
▁view	-1546
enn	-1547
▁wee	-1548
ocial	-1549
AT	-1550
▁...	-1551
出了	-1552
亿元	-1553
▁ask	-1554
▁grow	-1555
阅读	-1556
▁incre	-1557
▁product	-1558
小时	-1559
ister	-1560
满足	-1561
▁access	-1562
iron	-1563
artment	-1564
▁Count	-1565
未来	-1566
ills	-1567
ards	-1568
by	-1569
▁within	-1570
▁better	-1571
具体	-1572
▁stand	-1573
特点	-1574
的小	-1575
ON	-1576
ES	-1577
全球	-1578
▁important	-1579
less	-1580
▁present	-1581
期间	-1582
▁visit	-1583
ived	-1584
pend	-1585
▁bre	-1586
会议	-1587
▁est	-1588
作品	-1589
If	-1590
icle	-1591
nect	-1592
els	-1593
确保	-1594
的大	-1595
isc	-1596
哪些	-1597
目标	-1598
▁phot	-1599
,“	-1600
人们	-1601
压力	-1602
sc	-1603
://	-1604
不同的	-1605
▁hist	-1606
才能	-1607
uthor	-1608
▁special	-1609
▁ca	-1610
研发	-1611
ustom	-1612
ney	-1613
▁wr	-1614
地方	-1615
ism	-1616
▁something	-1617
价值	-1618
ym	-1619
文章	-1620
▁able	-1621
申请	-1622
▁provide	-1623
uro	-1624
▁—	-1625
▁night	-1626
,"	-1627
展示	-1628
AR	-1629
按照	-1630
▁Ass	-1631
最新	-1632
▁'	-1633
风险	-1634
▁got	-1635
教师	-1636
ories	-1637
形成	-1638
ubl	-1639
ases	-1640
温度	-1641
ential	-1642
整体	-1643
ured	-1644
▁near	-1645
得到	-1646
▁let	-1647
ternational	-1648
准备	-1649
ense	-1650
aut	-1651
▁test	-1652
ode	-1653
▁members	-1654
▁ty	-1655
▁activ	-1656
增长	-1657
▁Christ	-1658
技能	-1659
只有	-1660
▁law	-1661
ware	-1662
ohn	-1663
▁School	-1664
ogra	-1665
▁ide	-1666
认为	-1667
状态	-1668
▁services	-1669
▁spec	-1670
ED	-1671
▁proble	-1672
课程	-1673
arent	-1674
une	-1675
▁fr	-1676
......	-1677
ex	-1678
第三	-1679
十分	-1680
来看	-1681
适合	-1682
IS	-1683
▁comple	-1684
。(	-1685
omm	-1686
ically	-1687
员工	-1688
ane	-1689
itions	-1690
▁research	-1691
inal	-1692
▁wom	-1693
▁following	-1694
ption	-1695
▁Or	-1696
ails	-1697
work	-1698
▁toget	-1699
▁together	-1700
the	-1701
ivid	-1702
▁stat	-1703
over	-1704
▁fact	-1705
▁employ	-1706
uck	-1707
ocus	-1708
▁effect	-1709
运营	-1710
rol	-1711
▁To	-1712
▁hard	-1713
ains	-1714
gr	-1715
之前	-1716
结果	-1717
▁dep	-1718
▁sal	-1719
▁learn	-1720
专家	-1721
ID	-1722
eb	-1723
想要	-1724
▁expect	-1725
▁educ	-1726
por	-1727
augh	-1728
▁without	-1729
关系	-1730
ury	-1731
▁enjoy	-1732
高的	-1733
都有	-1734
ten	-1735
。**	-1736
▁eng	-1737
▁opport	-1738
两个	-1739
▁So	-1740
分钟	-1741
以下	-1742
ries	-1743
▁development	-1744
ober	-1745
来越	-1746
环保	-1747
加强	-1748
▁US	-1749
ified	-1750
----	-1751
许多	-1752
正常	-1753
之一	-1754
面积	-1755
▁impro	-1756
作者	-1757
▁job	-1758
aster	-1759
lection	-1760
区域	-1761
越来越	-1762
医疗	-1763
球队	-1764
的高	-1765
▁ce	-1766
品质	-1767
运行	-1768
查看	-1769
不错	-1770
针对	-1771
癫痫	-1772
pped	-1773
▁chang	-1774
ret	-1775
▁Car	-1776
就会	-1777
ieve	-1778
左右	-1779
▁change	-1780
▁sit	-1781
规定	-1782
任务	-1783
▁along	-1784
体系	-1785
社区	-1786
▁story	-1787
▁food	-1788
▁away	-1789
调整	-1790
避免	-1791
地址	-1792
▁sure	-1793
▁bas	-1794
viron	-1795
办公	-1796
▁profess	-1797
rict	-1798
艺术	-1799
▁met	-1800
▁country	-1801
ats	-1802
减少	-1803
OR	-1804
互联网	-1805
itional	-1806
AN	-1807
▁indust	-1808
官方	-1809
资料	-1810
cent	-1811
▁success	-1812
▁market	-1813
特色	-1814
▁beh	-1815
ights	-1816
▁const	-1817
▁equ	-1818
直播	-1819
alf	-1820
!!	-1821
ization	-1822
▁says	-1823
此次	-1824
包装	-1825
资金	-1826
ox	-1827
▁never	-1828
ems	-1829
本次	-1830
▁include	-1831
▁applic	-1832
side	-1833
努力	-1834
▁join	-1835
uly	-1836
▁leg	-1837
除了	-1838
超过	-1839
====	-1840
▁/	-1841
int	-1842
br	-1843
▁dri	-1844
速度	-1845
ability	-1846
的问题	-1847
▁pop	-1848
▁pay	-1849
ream	-1850
aring	-1851
▁City	-1852
▁looking	-1853
商品	-1854
▁across	-1855
▁sing	-1856
ump	-1857
here	-1858
ined	-1859
主题	-1860
IC	-1861
www	-1862
▁Med	-1863
You	-1864
一种	-1865
就可以	-1866
的情况	-1867
▁aff	-1868
▁prom	-1869
▁turn	-1870
优质	-1871
▁air	-1872
▁Fl	-1873
ertain	-1874
As	-1875
同学	-1876
都会	-1877
身体	-1878
家庭	-1879
▁please	-1880
玻璃	-1881
卫生	-1882
供应	-1883
▁large	-1884
▁contact	-1885
uture	-1886
测试	-1887
▁record	-1888
▁fund	-1889
效率	-1890
▁County	-1891
无法	-1892
▁dem	-1893
▁give	-1894
▁making	-1895
也有	-1896
▁la	-1897
ourn	-1898
受到	-1899
▁might	-1900
nes	-1901
行为	-1902
▁house	-1903
设置	-1904
▁city	-1905
规划	-1906
ball	-1907
oon	-1908
甚至	-1909
▁cond	-1910
▁course	-1911
▁el	-1912
详细	-1913
创业	-1914
iam	-1915
▁dra	-1916
▁short	-1917
ify	-1918
来自	-1919
感觉	-1920
降低	-1921
ained	-1922
▁below	-1923
指导	-1924
▁hum	-1925
▁Pr	-1926
vious	-1927
金融	-1928
▁vide	-1929
▁cap	-1930
时代	-1931
▁State	-1932
共同	-1933
▁left	-1934
ored	-1935
人才	-1936
广告	-1937
您的	-1938
赛季	-1939
有关	-1940
▁discuss	-1941
▁focus	-1942
报告	-1943
我的	-1944
▁What	-1945
ider	-1946
营销	-1947
▁Co	-1948
▁Min	-1949
全部	-1950
取得	-1951
iting	-1952
计算	-1953
▁custom	-1954
考虑	-1955
veral	-1956
空气	-1957
%。	-1958
conom	-1959
ference	-1960
正式	-1961
以来	-1962
图片	-1963
AS	-1964
▁minutes	-1965
核心	-1966
vironment	-1967
▁Fr	-1968
▁times	-1969
For	-1970
▁supp	-1971
觉得	-1972
▁million	-1973
▁i	-1974
报名	-1975
车辆	-1976
形式	-1977
aper	-1978
也不	-1979
▁prote	-1980
ienc	-1981
量的	-1982
▁At	-1983
year	-1984
风格	-1985
iven	-1986
.,	-1987
▁John	-1988
▁power	-1989
yn	-1990
资讯	-1991
ger	-1992
ai	-1993
建立	-1994
▁live	-1995
lege	-1996
我国	-1997
历史	-1998
▁elect	-1999
▁understand	-2000
坚持	-2001
属于	-2002
▁pot	-2003
面的	-2004
防控	-2005
有的	-2006
ising	-2007
▁music	-2008
▁name	-2009
方向	-2010
最终	-2011
成立	-2012
完全	-2013
▁government	-2014
是在	-2015
保险	-2016
充分	-2017
整个	-2018
▁based	-2019
▁writ	-2020
首先	-2021
▁order	-2022
▁camp	-2023
▁less	-2024
▁commun	-2025
ajor	-2026
金属	-2027
多少	-2028
性的	-2029
机会	-2030
变化	-2031
▁Can	-2032
inc	-2033
▁rele	-2034
itc	-2035
lement	-2036
实力	-2037
娱乐	-2038
不少	-2039
▁allow	-2040
ials	-2041
▁return	-2042
▁Am	-2043
▁Wor	-2044
▁mat	-2045
What	-2046
费用	-2047
▁study	-2048
▁creat	-2049
阶段	-2050
即可	-2051
duct	-2052
现代	-2053
An	-2054
lish	-2055
白癜	-2056
更新	-2057
EN	-2058
▁announ	-2059
群众	-2060
▁young	-2061
白癜风	-2062
合理	-2063
竞争	-2064
普通	-2065
itive	-2066
▁site	-2067
维护	-2068
▁move	-2069
▁light	-2070
多的	-2071
riday	-2072
▁land	-2073
pecial	-2074
移动	-2075
升级	-2076
▁.	-2077
oney	-2078
▁share	-2079
定制	-2080
是一个	-2081
每天	-2082
消息	-2083
▁check	-2084
▁Jan	-2085
▁several	-2086
优秀	-2087
▁took	-2088
招聘	-2089
▁cost	-2090
eral	-2091
皮肤	-2092
acy	-2093
▁webs	-2094
儿童	-2095
广大	-2096
▁Pol	-2097
ready	-2098
ural	-2099
ids	-2100
▁sum	-2101
▁social	-2102
ources	-2103
▁review	-2104
▁side	-2105
他的	-2106
wards	-2107
ividual	-2108
进行了	-2109
加入	-2110
▁mar	-2111
▁anal	-2112
)。	-2113
▁God	-2114
▁case	-2115
▁feat	-2116
▁[	-2117
Ch	-2118
ilities	-2119
opy	-2120
出的	-2121
aces	-2122
比如	-2123
ush	-2124
良好的	-2125
法律	-2126
分别	-2127
▁word	-2128
▁mil	-2129
▁pain	-2130
▁future	-2131
ief	-2132
生态	-2133
流程	-2134
版权	-2135
▁point	-2136
cl	-2137
aim	-2138
商业	-2139
ateg	-2140
rop	-2141
ention	-2142
数字	-2143
▁No	-2144
理念	-2145
这样的	-2146
)、	-2147
▁account	-2148
▁series	-2149
事情	-2150
ners	-2151
明显	-2152
类型	-2153
也会	-2154
▁five	-2155
只要	-2156
▁National	-2157
▁chall	-2158
安排	-2159
▁Me	-2160
一定要	-2161
▁En	-2162
消防	-2163
的产品	-2164
官网	-2165
▁field	-2166
▁early	-2167
基金	-2168
ource	-2169
▁upd	-2170
实验	-2171
成绩	-2172
▁Pres	-2173
▁non	-2174
idd	-2175
实施	-2176
AC	-2177
▁months	-2178
▁My	-2179
▁invol	-2180
me	-2181
深圳	-2182
▁having	-2183
▁Park	-2184
的发展	-2185
ffic	-2186
▁Serv	-2187
aturday	-2188
自身	-2189
程序	-2190
▁possible	-2191
▁walk	-2192
措施	-2193
▁connect	-2194
广泛	-2195
下面	-2196
规模	-2197
ris	-2198
of	-2199
电动	-2200
表面	-2201
ances	-2202
▁came	-2203
▁App	-2204
▁others	-2205
优化	-2206
▁already	-2207
IT	-2208
OS	-2209
长期	-2210
推进	-2211
▁Dep	-2212
▁mult	-2213
目的	-2214
▁trad	-2215
酒店	-2216
当然	-2217
推广	-2218
▁hours	-2219
▁staff	-2220
多种	-2221
一体	-2222
出来	-2223
urther	-2224
▁started	-2225
样的	-2226
▁occ	-2227
ring	-2228
▁needs	-2229
book	-2230
不可	-2231
机器	-2232
州市	-2233
ination	-2234
▁South	-2235
每个	-2236
生物	-2237
家长	-2238
驾驶	-2239
▁online	-2240
back	-2241
fer	-2242
动力	-2243
▁individual	-2244
联合	-2245
▁With	-2246
▁United	-2247
▁called	-2248
▁Ste	-2249
电视	-2250
right	-2251
ille	-2252
▁:	-2253
ina	-2254
符合	-2255
日常	-2256
规范	-2257
▁building	-2258
▁sw	-2259
▁done	-2260
培养	-2261
How	-2262
执行	-2263
▁friends	-2264
aken	-2265
▁ago	-2266
机的	-2267
ges	-2268
▁far	-2269
▁Bro	-2270
urity	-2271
▁become	-2272
上一	-2273
从而	-2274
▁page	-2275
当前	-2276
▁American	-2277
用的	-2278
严格	-2279
这款	-2280
On	-2281
球员	-2282
▁beaut	-2283
领导	-2284
▁talk	-2285
物流	-2286
ably	-2287
真的	-2288
后的	-2289
enef	-2290
并不	-2291
af	-2292
▁space	-2293
arning	-2294
▁major	-2295
行动	-2296
也可以	-2297
轻松	-2298
能源	-2299
utions	-2300
▁bring	-2301
疾病	-2302
▁North	-2303
ounc	-2304
促进	-2305
ted	-2306
▁fav	-2307
有些	-2308
▁Friday	-2309
▁ident	-2310
▁net	-2311
工具	-2312
▁why	-2313
unday	-2314
ued	-2315
pril	-2316
完善	-2317
英语	-2318
hers	-2319
▁Gu	-2320
▁Euro	-2321
▁mor	-2322
anks	-2323
▁won	-2324
▁es	-2325
▁complet	-2326
ancial	-2327
运输	-2328
▁line	-2329
abor	-2330
There	-2331
BA	-2332
政府	-2333
ots	-2334
▁website	-2335
▁vol	-2336
说明	-2337
ster	-2338
reet	-2339
cri	-2340
▁Ab	-2341
▁bed	-2342
▁When	-2343
是一种	-2344
▁fore	-2345
▁hold	-2346
pping	-2347
因素	-2348
▁told	-2349
确定	-2350
结束	-2351
▁cou	-2352
▁went	-2353
▁orig	-2354
▁treat	-2355
搜索	-2356
的新	-2357
严重	-2358
成长	-2359
ocu	-2360
ians	-2361
▁prep	-2362
不得	-2363
▁Inst	-2364
ctor	-2365
uary	-2366
▁Gr	-2367
决定	-2368
下来	-2369
电影	-2370
IP	-2371
▁Center	-2372
load	-2373
resent	-2374
它的	-2375
通知	-2376
rew	-2377
sw	-2378
文件	-2379
▁compet	-2380
山东	-2381
▁Ne	-2382
for	-2383
▁Go	-2384
网友	-2385
登录	-2386
意识	-2387
相信	-2388
itor	-2389
▁mater	-2390
▁priv	-2391
adu	-2392
▁charact	-2393
irm	-2394
幼儿	-2395
▁Comp	-2396
▁Mc	-2397
fect	-2398
ides	-2399
▁ens	-2400
▁due	-2401
▁held	-2402
接受	-2403
▁strong	-2404
▁mom	-2405
uff	-2406
毕业	-2407
伙伴	-2408
▁often	-2409
▁Dr	-2410
come	-2411
ony	-2412
go	-2413
支付	-2414
▁management	-2415
程度	-2416
尤其	-2417
oard	-2418
▁stay	-2419
ique	-2420
▁Ed	-2421
近日	-2422
▁author	-2423
▁Che	-2424
▁create	-2425
iful	-2426
▁Saturday	-2427
设施	-2428
▁didn	-2429
▁ever	-2430
▁hope	-2431
这么	-2432
▁travel	-2433
报道	-2434
▁Oct	-2435
ibr	-2436
文明	-2437
▁heart	-2438
pro	-2439
▁issues	-2440
▁role	-2441
只是	-2442
▁environment	-2443
AL	-2444
办理	-2445
更多的	-2446
▁video	-2447
de	-2448
▁respons	-2449
irl	-2450
▁particip	-2451
illed	-2452
另外	-2453
化的	-2454
产品的	-2455
挑战	-2456
ape	-2457
组成	-2458
now	-2459
值得	-2460
装饰	-2461
排名	-2462
▁later	-2463
▁yet	-2464
▁lik	-2465
连接	-2466
参考	-2467
▁econom	-2468
▁tre	-2469
最大	-2470
duc	-2471
▁thing	-2472
▁Cal	-2473
ethod	-2474
▁Cont	-2475
发挥	-2476
▁industry	-2477
▁enc	-2478
分类	-2479
▁par	-2480
上市	-2481
▁questions	-2482
unch	-2483
itted	-2484
道路	-2485
▁host	-2486
▁opt	-2487
oints	-2488
音乐	-2489
搭配	-2490
▁getting	-2491
清洗	-2492
▁tell	-2493
▁That	-2494
的工作	-2495
▁Tw	-2496
年来	-2497
▁break	-2498
▁doing	-2499
▁begin	-2500
ulation	-2501
首页	-2502
▁half	-2503
verage	-2504
▁lat	-2505
sel	-2506
eter	-2507
精彩	-2508
▁age	-2509
ilt	-2510
▁kind	-2511
最近	-2512
▁history	-2513
有着	-2514
▁happen	-2515
ided	-2516
一点	-2517
▁March	-2518
▁Sept	-2519
转载	-2520
ones	-2521
▁email	-2522
uesday	-2523
故事	-2524
经理	-2525
▁training	-2526
ports	-2527
ospital	-2528
▁Monday	-2529
▁property	-2530
▁known	-2531
▁dev	-2532
重要的	-2533
广东	-2534
icy	-2535
▁miss	-2536
先进	-2537
色的	-2538
▁step	-2539
▁X	-2540
▁tem	-2541
推动	-2542
ursday	-2543
▁bit	-2544
▁enough	-2545
▁attend	-2546
▁benef	-2547
▁CO	-2548
▁aut	-2549
▁office	-2550
▁added	-2551
ouncil	-2552
装备	-2553
▁Aust	-2554
▁hot	-2555
下一	-2556
▁World	-2557
▁Sunday	-2558
▁according	-2559
atic	-2560
▁six	-2561
▁fire	-2562
高速	-2563
▁film	-2564
▁address	-2565
▁publ	-2566
落实	-2567
主任	-2568
▁personal	-2569
Pro	-2570
ham	-2571
相对	-2572
iod	-2573
ruction	-2574
污染	-2575
ednes	-2576
如今	-2577
找到	-2578
ednesday	-2579
位于	-2580
pos	-2581
▁Des	-2582
合同	-2583
专业的	-2584
APP	-2585
crib	-2586
日本	-2587
isk	-2588
天气	-2589
____	-2590
▁Will	-2591
fort	-2592
线上	-2593
声明	-2594
▁Health	-2595
▁close	-2596
▁High	-2597
东西	-2598
作业	-2599
yl	-2600
特殊	-2601
▁York	-2602
▁cut	-2603
ttp	-2604
农业	-2605
心理	-2606
▁quality	-2607
ole	-2608
流量	-2609
▁least	-2610
▁Stud	-2611
ched	-2612
个月	-2613
配合	-2614
aur	-2615
▁events	-2616
股份	-2617
▁areas	-2618
ead	-2619
▁April	-2620
不锈	-2621
▁One	-2622
email	-2623
▁mean	-2624
▁Do	-2625
▁cult	-2626
▁low	-2627
yle	-2628
ators	-2629
▁appear	-2630
▁offer	-2631
▁tot	-2632
▁deal	-2633
真实	-2634
▁comb	-2635
To	-2636
真正	-2637
ledge	-2638
oice	-2639
ague	-2640
resh	-2641
▁women	-2642
▁seen	-2643
面对	-2644
ana	-2645
本站	-2646
▁vers	-2647
▁works	-2648
▁currently	-2649
▁cook	-2650
▁living	-2651
obal	-2652
▁key	-2653
深入	-2654
▁Europe	-2655
引起	-2656
▁hig	-2657
▁thought	-2658
nder	-2659
打开	-2660
▁di	-2661
▁June	-2662
不锈钢	-2663
irc	-2664
ental	-2665
▁Manag	-2666
)-	-2667
▁given	-2668
装置	-2669
事业	-2670
维修	-2671
基地	-2672
▁vari	-2673
▁parent	-2674
▁member	-2675
经常	-2676
rain	-2677
▁taking	-2678
cast	-2679
垃圾	-2680
▁Our	-2681
Al	-2682
And	-2683
▁comes	-2684
▁Har	-2685
RE	-2686
增强	-2687
▁continue	-2688
▁final	-2689
▁wind	-2690
▁once	-2691
记录	-2692
举行	-2693
▁park	-2694
▁further	-2695
战略	-2696
本文	-2697
▁improve	-2698
▁results	-2699
连续	-2700
▁lim	-2701
▁control	-2702
▁Qu	-2703
ees	-2704
emic	-2705
idence	-2706
▁pie	-2707
▁media	-2708
无论	-2709
ask	-2710
收入	-2711
考生	-2712
▁News	-2713
ging	-2714
aching	-2715
cer	-2716
ival	-2717
▁inj	-2718
创造	-2719
▁July	-2720
添加	-2721
的重要	-2722
▁require	-2723
▁press	-2724
优惠	-2725
自由	-2726
▁cele	-2727
力量	-2728
▁assist	-2729
ample	-2730
▁police	-2731
angu	-2732
试验	-2733
Ph	-2734
代理	-2735
会有	-2736
此外	-2737
▁makes	-2738
一定的	-2739
绿色	-2740
aining	-2741
▁education	-2742
▁among	-2743
▁wa	-2744
车型	-2745
不到	-2746
coming	-2747
肯定	-2748
▁men	-2749
▁former	-2750
▁specific	-2751
▁Bar	-2752
AM	-2753
ips	-2754
▁Br	-2755
ibility	-2756
▁forward	-2757
▁Ge	-2758
ests	-2759
▁quick	-2760
掌握	-2761
▁Day	-2762
空调	-2763
玩法	-2764
公众	-2765
▁money	-2766
ogn	-2767
广州	-2768
most	-2769
▁points	-2770
们的	-2771
▁pri	-2772
案例	-2773
回收	-2774
配置	-2775
▁relations	-2776
▁Aug	-2777
重庆	-2778
▁tax	-2779
为什么	-2780
▁Pe	-2781
各类	-2782
度的	-2783
以后	-2784
▁taken	-2785
▁After	-2786
pper	-2787
time	-2788
电池	-2789
▁meas	-2790
▁Af	-2791
ili	-2792
运用	-2793
塑料	-2794
举办	-2795
内部	-2796
▁meeting	-2797
ilar	-2798
Ad	-2799
US	-2800
▁West	-2801
▁morning	-2802
▁port	-2803
▁details	-2804
生命	-2805
▁hom	-2806
▁clos	-2807
常见	-2808
▁Cor	-2809
▁Sec	-2810
志愿	-2811
▁easy	-2812
美元	-2813
rap	-2814
大型	-2815
▁foot	-2816
网上	-2817
认证	-2818
▁mind	-2819
疫情防控	-2820
开启	-2821
时尚	-2822
▁Reg	-2823
室内	-2824
ither	-2825
▁President	-2826
▁Department	-2827
>>	-2828
ops	-2829
▁docu	-2830
▁soft	-2831
▁percent	-2832
minist	-2833
▁means	-2834
吸引	-2835
▁road	-2836
▁received	-2837
▁games	-2838
▁Tuesday	-2839
动态	-2840
电脑	-2841
▁provided	-2842
等等	-2843
家具	-2844
▁coming	-2845
▁fall	-2846
沟通	-2847
▁ener	-2848
恢复	-2849
▁recent	-2850
aps	-2851
imate	-2852
fully	-2853
▁question	-2854
做到	-2855
▁impact	-2856
ovember	-2857
gest	-2858
ey	-2859
集中	-2860
elt	-2861
play	-2862
事项	-2863
▁front	-2864
▁coll	-2865
为您	-2866
anies	-2867
▁Per	-2868
▁opportunity	-2869
如此	-2870
很多人	-2871
▁learning	-2872
Cl	-2873
管道	-2874
公告	-2875
▁Thursday	-2876
▁clear	-2877
▁wond	-2878
▁beautiful	-2879
防止	-2880
商务	-2881
umb	-2882
岗位	-2883
nov	-2884
▁Gl	-2885
▁leaders	-2886
营养	-2887
▁Feb	-2888
成都	-2889
是什么	-2890
PS	-2891
▁Em	-2892
pm	-2893
联赛	-2894
具备	-2895
年度	-2896
▁skills	-2897
可靠	-2898
▁Wednesday	-2899
▁blog	-2900
》,	-2901
kend	-2902
▁investig	-2903
▁previous	-2904
ift	-2905
协会	-2906
更好的	-2907
▁weeks	-2908
aily	-2909
采购	-2910
▁super	-2911
roll	-2912
训练	-2913
oved	-2914
▁various	-2915
▁z	-2916
▁reported	-2917
开放	-2918
▁Mark	-2919
▁dr	-2920
▁deb	-2921
颜色	-2922
▁problem	-2923
▁career	-2924
改变	-2925
ried	-2926
享受	-2927
ung	-2928
EO	-2929
每一	-2930
年轻	-2931
的时间	-2932
Sh	-2933
多个	-2934
▁human	-2935
▁experienc	-2936
oom	-2937
▁everyone	-2938
武汉	-2939
▁recently	-2940
编辑	-2941
▁particular	-2942
▁Art	-2943
启动	-2944
hel	-2945
▁El	-2946
让人	-2947
aid	-2948
▁required	-2949
lex	-2950
bor	-2951
▁crit	-2952
!”	-2953
▁death	-2954
earch	-2955
▁pick	-2956
分为	-2957
距离	-2958
兴趣	-2959
▁body	-2960
▁sent	-2961
小学	-2962
▁comment	-2963
co	-2964
下降	-2965
最高	-2966
▁third	-2967
现象	-2968
下的	-2969
▁projects	-2970
更是	-2971
居民	-2972
▁effort	-2973
▁located	-2974
▁article	-2975
▁phys	-2976
ournal	-2977
▁These	-2978
数量	-2979
When	-2980
更好	-2981
ET	-2982
▁latest	-2983
▁Dav	-2984
为主	-2985
战斗	-2986
公司的	-2987
立即	-2988
wh	-2989
资格	-2990
ively	-2991
phone	-2992
head	-2993
办法	-2994
arter	-2995
▁link	-2996
形象	-2997
▁Sm	-2998
实践	-2999
▁fre	-3000
高效	-3001
▁Ag	-3002
▁content	-3003
▁mot	-3004
小区	-3005
▁period	-3006
▁init	-3007
▁September	-3008
▁performance	-3009
先生	-3010
还可以	-3011
▁January	-3012
agn	-3013
身份	-3014
双方	-3015
▁ant	-3016
尺寸	-3017
cember	-3018
▁contrib	-3019
urg	-3020
校园	-3021
▁However	-3022
▁doesn	-3023
▁technology	-3024
▁Part	-3025
▁represent	-3026
再次	-3027
▁More	-3028
▁financial	-3029
正确	-3030
▁Associ	-3031
ches	-3032
查询	-3033
▁hon	-3034
ication	-3035
角色	-3036
调查	-3037
力的	-3038
▁position	-3039
▁exam	-3040
mit	-3041
冠军	-3042
▁October	-3043
▁watch	-3044
fic	-3045
▁single	-3046
ables	-3047
负责人	-3048
▁pict	-3049
▁Rep	-3050
ison	-3051
▁summer	-3052
▁everything	-3053
当地	-3054
▁Direct	-3055
▁town	-3056
ler	-3057
▁national	-3058
ef	-3059
gress	-3060
会员	-3061
not	-3062
智慧	-3063
▁perfect	-3064
?”	-3065
的方式	-3066
医生	-3067
org	-3068
▁face	-3069
▁Su	-3070
化学	-3071
But	-3072
▁recomm	-3073
ification	-3074
ington	-3075
fact	-3076
▁tit	-3077
▁Please	-3078
uation	-3079
满意	-3080
▁ach	-3081
used	-3082
▁polit	-3083
▁signific	-3084
宝宝	-3085
▁recommend	-3086
▁activities	-3087
hib	-3088
aul	-3089
▁House	-3090
▁above	-3091
oura	-3092
有哪些	-3093
▁oil	-3094
reg	-3095
▁potential	-3096
内的	-3097
nding	-3098
▁ste	-3099
、“	-3100
▁soon	-3101
▁mess	-3102
▁provides	-3103
▁pur	-3104
▁typ	-3105
▁Her	-3106
是一款	-3107
里的	-3108
par	-3109
ecut	-3110
▁cal	-3111
▁claim	-3112
▁Mr	-3113
过去	-3114
EC	-3115
的好	-3116
就能	-3117
▁tool	-3118
▁dig	-3119
这次	-3120
▁dou	-3121
▁complete	-3122
▁believe	-3123
though	-3124
pecially	-3125
提前	-3126
erved	-3127
感受	-3128
arl	-3129
在这里	-3130
▁track	-3131
▁range	-3132
▁energy	-3133
经典	-3134
▁Inc	-3135
▁His	-3136
接触	-3137
知名	-3138
▁practice	-3139
itter	-3140
▁certain	-3141
认真	-3142
addr	-3143
江苏	-3144
▁throughout	-3145
迅速	-3146
▁method	-3147
▁date	-3148
itch	-3149
▁companies	-3150
ze	-3151
定位	-3152
▁et	-3153
提示	-3154
▁addition	-3155
公共	-3156
asing	-3157
atural	-3158
只能	-3159
ession	-3160
预计	-3161
rodu	-3162
固定	-3163
▁Not	-3164
icles	-3165
▁sugg	-3166
▁teac	-3167
获取	-3168
必要	-3169
ada	-3170
通常	-3171
▁needed	-3172
▁asked	-3173
英雄	-3174
itten	-3175
AD	-3176
▁Add	-3177
):	-3178
▁lives	-3179
▁paper	-3180
▁在	-3181
▁issue	-3182
强度	-3183
▁saf	-3184
▁select	-3185
主动	-3186
统一	-3187
明确	-3188
▁November	-3189
▁Off	-3190
▁deg	-3191
简介	-3192
▁weekend	-3193
人工	-3194
▁favor	-3195
▁bar	-3196
▁deter	-3197
▁announced	-3198
浙江	-3199
有一	-3200
▁aud	-3201
▁includes	-3202
idents	-3203
丰富的	-3204
电机	-3205
All	-3206
不知道	-3207
▁UK	-3208
▁student	-3209
舒适	-3210
▁ap	-3211
▁whole	-3212
oe	-3213
ades	-3214
美的	-3215
监管	-3216
相比	-3217
▁products	-3218
isting	-3219
ville	-3220
随时	-3221
?-	-3222
olid	-3223
高度	-3224
▁professional	-3225
委员	-3226
评价	-3227
有了	-3228
股票	-3229
irt	-3230
▁Mich	-3231
▁someone	-3232
▁ground	-3233
▁worked	-3234
▁relationship	-3235
▁contract	-3236
就业	-3237
▁ey	-3238
▁behind	-3239
▁knowledge	-3240
▁red	-3241
▁log	-3242
手游	-3243
ensive	-3244
▁Val	-3245
准确	-3246
期待	-3247
▁protect	-3248
▁wel	-3249
顺利	-3250
▁pack	-3251
提醒	-3252
采取	-3253
iol	-3254
off	-3255
aced	-3256
ese	-3257
▁late	-3258
资产	-3259
下午	-3260
OT	-3261
从事	-3262
▁Fin	-3263
种植	-3264
趋势	-3265
投入	-3266
▁song	-3267
▁Pat	-3268
▁goal	-3269
▁common	-3270
技巧	-3271
▁total	-3272
工作人员	-3273
习惯	-3274
▁international	-3275
事故	-3276
▁self	-3277
让你	-3278
手术	-3279
心的	-3280
河南	-3281
▁reading	-3282
测量	-3283
寿命	-3284
▁gra	-3285
链接	-3286
yc	-3287
反应	-3288
▁search	-3289
ached	-3290
▁challeng	-3291
icro	-3292
▁clean	-3293
err	-3294
有所	-3295
▁Your	-3296
公布	-3297
里面	-3298
推出	-3299
▁celebr	-3300
清洁	-3301
ford	-3302
ysis	-3303
▁repl	-3304
很好	-3305
ruary	-3306
大多	-3307
的设计	-3308
▁click	-3309
lu	-3310
场景	-3311
遇到	-3312
overed	-3313
▁sound	-3314
ands	-3315
▁tal	-3316
li	-3317
ester	-3318
▁Tra	-3319
▁action	-3320
强的	-3321
联系我们	-3322
▁December	-3323
▁States	-3324
互动	-3325
aker	-3326
▁changes	-3327
CC	-3328
意见	-3329
selves	-3330
▁couple	-3331
▁Austral	-3332
Com	-3333
告诉	-3334
如下	-3335
▁answ	-3336
itting	-3337
独特	-3338
外观	-3339
幸福	-3340
症状	-3341
▁features	-3342
hern	-3343
ama	-3344
▁redu	-3345
食物	-3346
my	-3347
平方	-3348
大量	-3349
ground	-3350
ises	-3351
▁consider	-3352
监督	-3353
ficult	-3354
▁patients	-3355
▁significant	-3356
困难	-3357
成了	-3358
itte	-3359
提出	-3360
▁board	-3361
市民	-3362
▁character	-3363
ructure	-3364
ishing	-3365
▁College	-3366
▁whether	-3367
涉及	-3368
inks	-3369
Ex	-3370
公交	-3371
▁collect	-3372
成果	-3373
本身	-3374
apt	-3375
出口	-3376
▁International	-3377
组合	-3378
amed	-3379
▁club	-3380
▁associ	-3381
opyright	-3382
▁--	-3383
版本	-3384
渠道	-3385
▁intern	-3386
客服	-3387
证明	-3388
投资者	-3389
▁medical	-3390
公安	-3391
▁prob	-3392
物质	-3393
based	-3394
快乐	-3395
一家	-3396
oring	-3397
lev	-3398
▁pan	-3399
足球	-3400
环节	-3401
▁cover	-3402
利润	-3403
状况	-3404
队伍	-3405
▁trying	-3406
最好	-3407
▁value	-3408
hing	-3409
理解	-3410
atory	-3411
制度	-3412
▁Im	-3413
enior	-3414
itchen	-3415
统计	-3416
▁install	-3417
场比赛	-3418
VID	-3419
元素	-3420
解决方案	-3421
arden	-3422
▁writing	-3423
PC	-3424
▁private	-3425
你们	-3426
▁Don	-3427
▁wanted	-3428
Our	-3429
cription	-3430
上午	-3431
评论	-3432
处于	-3433
他们的	-3434
几个	-3435
那些	-3436
▁released	-3437
▁actually	-3438
改善	-3439
▁respect	-3440
相应	-3441
▁outside	-3442
▁shows	-3443
今日	-3444
售后	-3445
ino	-3446
▁hit	-3447
▁vict	-3448
▁offers	-3449
ondon	-3450
同比	-3451
▁Cour	-3452
So	-3453
...-	-3454
oud	-3455
进口	-3456
uk	-3457
▁cup	-3458
▁release	-3459
防护	-3460
▁receive	-3461
anguage	-3462
▁concern	-3463
病毒	-3464
hood	-3465
ilies	-3466
field	-3467
一年	-3468
▁buy	-3469
▁Sw	-3470
全新	-3471
▁difficult	-3472
▁recogn	-3473
期的	-3474
▁running	-3475
▁Act	-3476
▁English	-3477
感染	-3478
将会	-3479
▁via	-3480
ara	-3481
背景	-3482
che	-3483
农村	-3484
▁reason	-3485
▁War	-3486
证书	-3487
造型	-3488
重视	-3489
▁August	-3490
器的	-3491
▁general	-3492
机制	-3493
▁ways	-3494
▁rights	-3495
amb	-3496
密封	-3497
ociety	-3498
wood	-3499
▁players	-3500
认识	-3501
▁decision	-3502
化工	-3503
意义	-3504
oose	-3505
▁expected	-3506
防水	-3507
将在	-3508
▁cand	-3509
▁Group	-3510
材质	-3511
usiness	-3512
▁ensure	-3513
▁especially	-3514
BC	-3515
ires	-3516
给大家	-3517
▁subject	-3518
ume	-3519
▁Afric	-3520
aving	-3521
ederal	-3522
▁model	-3523
iff	-3524
iddle	-3525
▁affect	-3526
中央	-3527
ibrary	-3528
▁insp	-3529
过滤	-3530
▁vac	-3531
▁By	-3532
公开	-3533
▁Red	-3534
▁related	-3535
逐渐	-3536
PP	-3537
ci	-3538
公里	-3539
▁ep	-3540
iple	-3541
▁Just	-3542
植物	-3543
▁text	-3544
都可以	-3545
erman	-3546
raft	-3547
▁takes	-3548
▁estab	-3549
▁entire	-3550
语言	-3551
ules	-3552
na	-3553
ograph	-3554
▁engine	-3555
ald	-3556
▁tour	-3557
▁sus	-3558
为大家	-3559
营业	-3560
发展的	-3561
▁risk	-3562
▁almost	-3563
▁comput	-3564
ccording	-3565
新型	-3566
看看	-3567
方面的	-3568
ael	-3569
变得	-3570
oke	-3571
▁round	-3572
OL	-3573
▁San	-3574
街道	-3575
▁anything	-3576
▁Here	-3577
▁Read	-3578
太阳	-3579
的地方	-3580
信用	-3581
有很多	-3582
▁created	-3583
最佳	-3584
▁plans	-3585
粉丝	-3586
elling	-3587
▁accept	-3588
▁systems	-3589
▁parents	-3590
▁attack	-3591
iter	-3592
相当	-3593
可是	-3594
▁increase	-3595
oph	-3596
名称	-3597
三个	-3598
New	-3599
istry	-3600
苹果	-3601
▁squ	-3602
▁security	-3603
▁court	-3604
epend	-3605
▁Council	-3606
保温	-3607
▁Ac	-3608
astic	-3609
突破	-3610
▁quite	-3611
▁similar	-3612
召开	-3613
unities	-3614
▁encoura	-3615
▁involved	-3616
电商	-3617
▁seem	-3618
My	-3619
故障	-3620
独立	-3621
职工	-3622
▁anim	-3623
▁amount	-3624
▁application	-3625
不一样	-3626
itation	-3627
▁either	-3628
覆盖	-3629
▁production	-3630
▁purch	-3631
都能	-3632
▁circ	-3633
▁ready	-3634
性和	-3635
▁cred	-3636
acebook	-3637
感谢	-3638
▁idea	-3639
▁problems	-3640
ores	-3641
▁tou	-3642
四川	-3643
平均	-3644
▁books	-3645
▁example	-3646
▁arch	-3647
协议	-3648
rug	-3649
的服务	-3650
ites	-3651
ailed	-3652
▁veh	-3653
sp	-3654
的同时	-3655
休闲	-3656
氧化	-3657
商家	-3658
▁official	-3659
少年	-3660
改造	-3661
▁girl	-3662
▁prior	-3663
各项	-3664
行政	-3665
▁kids	-3666
▁Ser	-3667
顾客	-3668
▁Sup	-3669
uge	-3670
之间的	-3671
公园	-3672
呈现	-3673
gle	-3674
各位	-3675
▁played	-3676
▁growth	-3677
预防	-3678
lin	-3679
▁stri	-3680
良好	-3681
▁leading	-3682
hold	-3683
▁words	-3684
来了	-3685
yd	-3686
▁wonder	-3687
HE	-3688
高温	-3689
▁happy	-3690
众多	-3691
▁network	-3692
oid	-3693
▁necess	-3694
▁regard	-3695
然而	-3696
当时	-3697
iet	-3698
全体	-3699
地图	-3700
▁gradu	-3701
审核	-3702
场所	-3703
lus	-3704
▁mix	-3705
毕竟	-3706
合适	-3707
领先	-3708
热线	-3709
▁Ke	-3710
▁agre	-3711
展现	-3712
▁Pre	-3713
irth	-3714
来到	-3715
热门	-3716
配套	-3717
可能会	-3718
▁type	-3719
企业的	-3720
??	-3721
去年	-3722
收藏	-3723
empt	-3724
▁February	-3725
tain	-3726
icated	-3727
强化	-3728
ari	-3729
应急	-3730
▁regular	-3731
▁leave	-3732
浏览	-3733
▁published	-3734
▁included	-3735
erc	-3736
天津	-3737
medi	-3738
▁Sal	-3739
▁likely	-3740
ude	-3741
动作	-3742
▁loss	-3743
▁London	-3744
各个	-3745
信号	-3746
▁playing	-3747
▁x	-3748
重新	-3749
青年	-3750
▁emer	-3751
▁comments	-3752
ING	-3753
公路	-3754
总结	-3755
登记	-3756
近期	-3757
airs	-3758
▁however	-3759
▁Int	-3760
▁pret	-3761
之外	-3762
▁bath	-3763
arget	-3764
不用	-3765
了一个	-3766
决赛	-3767
指数	-3768
其它	-3769
子的	-3770
▁Air	-3771
当中	-3772
同样	-3773
还要	-3774
▁express	-3775
▁decided	-3776
▁suggest	-3777
布局	-3778
▁safety	-3779
▁card	-3780
▁war	-3781
工作的	-3782
▁Par	-3783
gar	-3784
月份	-3785
Please	-3786
oes	-3787
▁ill	-3788
ST	-3789
▁dam	-3790
mon	-3791
证券	-3792
阳光	-3793
出行	-3794
发动	-3795
▁match	-3796
对手	-3797
合金	-3798
light	-3799
▁president	-3800
▁white	-3801
删除	-3802
都在	-3803
餐饮	-3804
探索	-3805
▁reports	-3806
完整	-3807
▁Net	-3808
▁web	-3809
复杂	-3810
▁interview	-3811
不管	-3812
▁pers	-3813
可以在	-3814
IL	-3815
▁sche	-3816
▁cell	-3817
onst	-3818
▁programs	-3819
▁original	-3820
val	-3821
ological	-3822
伤害	-3823
▁simple	-3824
ittee	-3825
▁ess	-3826
制定	-3827
ttps	-3828
电源	-3829
▁Dist	-3830
▁bad	-3831
▁cases	-3832
ming	-3833
节目	-3834
等级	-3835
购物	-3836
很大	-3837
周边	-3838
atives	-3839
▁black	-3840
传播	-3841
▁safe	-3842
ett	-3843
▁stories	-3844
▁La	-3845
▁popular	-3846
还能	-3847
▁stop	-3848
▁Brit	-3849
报价	-3850
▁dog	-3851
UR	-3852
Read	-3853
家居	-3854
细节	-3855
▁Bu	-3856
▁Mus	-3857
公众号	-3858
让我们	-3859
的使用	-3860
致力	-3861
支撑	-3862
▁ful	-3863
观众	-3864
违法	-3865
band	-3866
▁led	-3867
▁reve	-3868
整理	-3869
▁PM	-3870
最大的	-3871
urance	-3872
经历	-3873
调节	-3874
融合	-3875
贷款	-3876
vey	-3877
改革	-3878
▁aim	-3879
ares	-3880
mas	-3881
▁Are	-3882
科研	-3883
anced	-3884
▁floor	-3885
加上	-3886
eds	-3887
▁object	-3888
▁Ang	-3889
▁Russ	-3890
▁prim	-3891
▁ple	-3892
▁moment	-3893
urb	-3894
有人	-3895
▁mother	-3896
▁lost	-3897
▁families	-3898
景区	-3899
展开	-3900
At	-3901
。-	-3902
Ab	-3903
不足	-3904
原则	-3905
留言	-3906
详情	-3907
▁price	-3908
教授	-3909
▁anyone	-3910
时刻	-3911
▁teams	-3912
▁treatment	-3913
不错的	-3914
很好的	-3915
mission	-3916
▁America	-3917
▁additional	-3918
etimes	-3919
ray	-3920
No	-3921
实时	-3922
▁rate	-3923
▁pretty	-3924
▁TV	-3925
如果你	-3926
fl	-3927
▁version	-3928
自主	-3929
ipe	-3930
▁resources	-3931
加热	-3932
讲解	-3933
);	-3934
era	-3935
http	-3936
unte	-3937
同学们	-3938
olution	-3939
OM	-3940
引导	-3941
适应	-3942
人士	-3943
ties	-3944
幼儿园	-3945
▁global	-3946
▁unique	-3947
监测	-3948
比例	-3949
aign	-3950
癫痫病	-3951
▁Techn	-3952
▁implement	-3953
EL	-3954
劳动	-3955
资质	-3956
尤其是	-3957
黄金	-3958
▁ball	-3959
▁saw	-3960
收集	-3961
收益	-3962
▁designed	-3963
▁Sch	-3964
▁else	-3965
不好	-3966
▁bi	-3967
▁£	-3968
高级	-3969
的游戏	-3970
▁fig	-3971
有什么	-3972
输送	-3973
河北	-3974
Ar	-3975
▁built	-3976
▁award	-3977
限制	-3978
▁location	-3979
▁describ	-3980
新冠	-3981
大小	-3982
▁function	-3983
生长	-3984
奖励	-3985
”、“	-3986
▁draw	-3987
EM	-3988
中华	-3989
工厂	-3990
eneral	-3991
学历	-3992
With	-3993
追求	-3994
线路	-3995
放在	-3996
理论	-3997
所在	-3998
而言	-3999
规格	-4000
基于	-4001
ampions	-4002
▁party	-4003
azing	-4004
▁extra	-4005
观看	-4006
对方	-4007
ecutive	-4008
▁schools	-4009
各地	-4010
ufact	-4011
▁inside	-4012
节能	-4013
▁size	-4014
的情况下	-4015
▁seems	-4016
合格	-4017
联盟	-4018
保养	-4019
▁sun	-4020
▁India	-4021
▁box	-4022
▁neg	-4023
▁deep	-4024
▁partners	-4025
emb	-4026
创建	-4027
刺激	-4028
▁ver	-4029
第四	-4030
清楚	-4031
会上	-4032
▁higher	-4033
照片	-4034
▁Now	-4035
▁Up	-4036
itute	-4037
▁Post	-4038
▁center	-4039
视觉	-4040
▁document	-4041
key	-4042
▁fresh	-4043
▁Educ	-4044
店铺	-4045
承担	-4046
随后	-4047
资本	-4048
pose	-4049
▁mid	-4050
的一种	-4051
输入	-4052
▁approach	-4053
治理	-4054
的影响	-4055
▁conduct	-4056
天然	-4057
▁Law	-4058
omin	-4059
观察	-4060
▁stru	-4061
▁positive	-4062
After	-4063
oday	-4064
▁rad	-4065
uel	-4066
▁organiz	-4067
参数	-4068
干燥	-4069
▁daily	-4070
▁appe	-4071
充满	-4072
美丽	-4073
▁apply	-4074
▁planning	-4075
********	-4076
irit	-4077
useum	-4078
大部分	-4079
▁written	-4080
rel	-4081
地产	-4082
更换	-4083
每一个	-4084
▁natural	-4085
▁average	-4086
mercial	-4087
lier	-4088
▁op	-4089
主要是	-4090
截至	-4091
▁Us	-4092
▁defe	-4093
▁clients	-4094
”“	-4095
电力	-4096
策略	-4097
▁Rec	-4098
贡献	-4099
rect	-4100
提供了	-4101
功率	-4102
南京	-4103
She	-4104
▁COVID	-4105
原料	-4106
》、	-4107
▁po	-4108
onse	-4109
▁conditions	-4110
▁neigh	-4111
reng	-4112
▁policy	-4113
atform	-4114
而是	-4115
ayer	-4116
高端	-4117
attle	-4118
enge	-4119
face	-4120
妈妈	-4121
的作用	-4122
--------	-4123
地点	-4124
ny	-4125
iction	-4126
确认	-4127
▁norm	-4128
腐蚀	-4129
▁director	-4130
另一	-4131
使得	-4132
▁star	-4133
适用于	-4134
确实	-4135
自行	-4136
▁began	-4137
TS	-4138
上涨	-4139
体现	-4140
▁etc	-4141
▁swe	-4142
iber	-4143
▁opportunities	-4144
▁request	-4145
文字	-4146
熟悉	-4147
焊接	-4148
学会	-4149
▁David	-4150
药物	-4151
▁East	-4152
Be	-4153
aughter	-4154
▁dise	-4155
▁Calif	-4156
▁gen	-4157
▁providing	-4158
▁Church	-4159
▁Association	-4160
▁fight	-4161
的需求	-4162
邀请	-4163
动物	-4164
民警	-4165
▁probably	-4166
包含	-4167
科技有限公司	-4168
欧洲	-4169
▁isn	-4170
始终	-4171
政策	-4172
▁Year	-4173
到底	-4174
循环	-4175
的方法	-4176
职位	-4177
ION	-4178
平方米	-4179
▁matter	-4180
如有	-4181
▁region	-4182
事件	-4183
制品	-4184
ply	-4185
IM	-4186
sy	-4187
部件	-4188
down	-4189
广场	-4190
指标	-4191
成员	-4192
▁nice	-4193
规则	-4194
天的	-4195
超级	-4196
▁hospital	-4197
rooms	-4198
干净	-4199
▁dead	-4200
物料	-4201
▁favorite	-4202
两种	-4203
混凝	-4204
▁groups	-4205
▁viol	-4206
父母	-4207
▁||	-4208
▁obs	-4209
▁legal	-4210
▁son	-4211
纤维	-4212
设备的	-4213
▁Director	-4214
vis	-4215
?#	-4216
aves	-4217
▁Program	-4218
生的	-4219
▁annual	-4220
监控	-4221
▁abs	-4222
ension	-4223
▁plant	-4224
共享	-4225
▁candid	-4226
例如	-4227
学员	-4228
氛围	-4229
▁Public	-4230
▁analysis	-4231
▁Cons	-4232
打印	-4233
▁Service	-4234
仪器	-4235
▁Develop	-4236
▁Trans	-4237
ivity	-4238
多年	-4239
▁longer	-4240
▁administ	-4241
▁hear	-4242
illing	-4243
标签	-4244
App	-4245
▁sat	-4246
▁yourself	-4247
识别	-4248
精准	-4249
就要	-4250
▁worth	-4251
细胞	-4252
▁subs	-4253
erve	-4254
▁qual	-4255
品种	-4256
有机	-4257
iger	-4258
▁Home	-4259
办公室	-4260
的一个	-4261
LC	-4262
istic	-4263
gu	-4264
▁grand	-4265
vest	-4266
▁organization	-4267
输出	-4268
▁chance	-4269
角度	-4270
▁boy	-4271
▁drive	-4272
传奇	-4273
湖南	-4274
▁file	-4275
认可	-4276
污水	-4277
▁opp	-4278
是一家	-4279
▁Some	-4280
ography	-4281
▁goals	-4282
aby	-4283
amily	-4284
rown	-4285
致力于	-4286
▁Tex	-4287
会在	-4288
put	-4289
领取	-4290
:**	-4291
▁fell	-4292
Un	-4293
rup	-4294
非常的	-4295
▁@	-4296
重大	-4297
▁Sk	-4298
▁Street	-4299
商标	-4300
▁statement	-4301
pite	-4302
的要求	-4303
配件	-4304
▁rather	-4305
itect	-4306
专项	-4307
依据	-4308
带来的	-4309
▁heav	-4310
▁seek	-4311
生活中	-4312
▁excell	-4313
▁Wash	-4314
ha	-4315
▁customers	-4316
GB	-4317
模拟	-4318
ples	-4319
▁From	-4320
imum	-4321
▁kitchen	-4322
▁Black	-4323
灵活	-4324
游戏中	-4325
bum	-4326
▁imm	-4327
地板	-4328
车的	-4329
▁target	-4330
zz	-4331
▁Business	-4332
ornia	-4333
udd	-4334
即将	-4335
它们	-4336
▁starting	-4337
混凝土	-4338
▁cross	-4339
表达	-4340
asons	-4341
观点	-4342
往往	-4343
ridge	-4344
▁introdu	-4345
气体	-4346
▁nothing	-4347
▁regist	-4348
aries	-4349
湖北	-4350
。《	-4351
收费	-4352
依然	-4353
▁prevent	-4354
irus	-4355
奶茶	-4356
激光	-4357
物品	-4358
助力	-4359
▁div	-4360
▁Facebook	-4361
riving	-4362
▁+	-4363
示范	-4364
名单	-4365
▁William	-4366
▁Of	-4367
▁AM	-4368
▁King	-4369
ault	-4370
▁sett	-4371
rought	-4372
▁Information	-4373
董事	-4374
ma	-4375
▁Office	-4376
网址	-4377
原创	-4378
aches	-4379
也能	-4380
▁path	-4381
▁Mor	-4382
贸易	-4383
ildren	-4384
的基础	-4385
福利	-4386
▁Port	-4387
在这	-4388
▁firm	-4389
肺炎	-4390
很大的	-4391
▁Board	-4392
II	-4393
进步	-4394
评估	-4395
都不	-4396
停车	-4397
▁send	-4398
ida	-4399
orge	-4400
▁immedi	-4401
▁rout	-4402
▁prop	-4403
西安	-4404
arc	-4405
医学	-4406
几乎	-4407
香港	-4408
▁Hall	-4409
rences	-4410
▁interested	-4411
个性	-4412
▁Court	-4413
宣布	-4414
页面	-4415
▁quarter	-4416
▁cannot	-4417
aging	-4418
也很	-4419
▁software	-4420
▁restaur	-4421
SU	-4422
原理	-4423
邮箱	-4424
De	-4425
▁table	-4426
▁defin	-4427
定期	-4428
小组	-4429
▁countries	-4430
▁Prof	-4431
▁ord	-4432
一切	-4433
▁player	-4434
根本	-4435
▁woman	-4436
▁sym	-4437
总部	-4438
▁flow	-4439
▁While	-4440
mitted	-4441
anch	-4442
▁Je	-4443
icip	-4444
▁feed	-4445
ils	-4446
akers	-4447
ening	-4448
estival	-4449
▁vot	-4450
哪里	-4451
均匀	-4452
▁wife	-4453
危险	-4454
▁items	-4455
▁separ	-4456
屏幕	-4457
充电	-4458
累计	-4459
▁Paul	-4460
▁upon	-4461
赛事	-4462
▁phone	-4463
▁modern	-4464
▁cool	-4465
obile	-4466
▁hous	-4467
上面	-4468
华为	-4469
ipment	-4470
▁respond	-4471
授权	-4472
明星	-4473
画面	-4474
▁gar	-4475
隐患	-4476
▁green	-4477
▁broad	-4478
▁bott	-4479
▁looks	-4480
防火	-4481
▁consum	-4482
ocal	-4483
▁cause	-4484
▁base	-4485
oul	-4486
▁histor	-4487
优点	-4488
招生	-4489
▁earn	-4490
房屋	-4491
▁construction	-4492
▁progress	-4493
oogle	-4494
▁true	-4495
回复	-4496
年龄	-4497
▁stra	-4498
使用的	-4499
iring	-4500
专注	-4501
▁sle	-4502
加快	-4503
ule	-4504
选手	-4505
▁Police	-4506
消毒	-4507
unt	-4508
发表	-4509
bit	-4510
检验	-4511
美食	-4512
▁collabor	-4513
做出	-4514
小说	-4515
的生活	-4516
▁League	-4517
▁campaign	-4518
本科	-4519
▁ded	-4520
▁depend	-4521
▁Community	-4522
的朋友	-4523
液压	-4524
▁Fe	-4525
▁material	-4526
▁capt	-4527
财务	-4528
▁wide	-4529
▁wood	-4530
色彩	-4531
相同	-4532
▁became	-4533
▁【	-4534
ux	-4535
▁Christmas	-4536
执法	-4537
饮食	-4538
即使	-4539
二维	-4540
的原因	-4541
委员会	-4542
▁movie	-4543
▁Services	-4544
▁German	-4545
▁title	-4546
▁attempt	-4547
关键词	-4548
▁screen	-4549
▁heat	-4550
最好的	-4551
复合	-4552
owl	-4553
行业的	-4554
:||	-4555
▁California	-4556
老人	-4557
▁coun	-4558
aged	-4559
高考	-4560
▁employees	-4561
erous	-4562
▁First	-4563
论文	-4564
▁Mem	-4565
▁Indian	-4566
▁Found	-4567
▁variety	-4568
▁myself	-4569
▁levels	-4570
的内容	-4571
特性	-4572
ought	-4573
.)	-4574
通道	-4575
More	-4576
▁Hol	-4577
ocr	-4578
▁source	-4579
▁streng	-4580
▁digital	-4581
▁ideas	-4582
半年	-4583
混合	-4584
也要	-4585
▁store	-4586
担心	-4587
▁hop	-4588
孩子们	-4589
中学	-4590
新增	-4591
法院	-4592
高校	-4593
vin	-4594
aled	-4595
可以说	-4596
安徽	-4597
leg	-4598
特别是	-4599
给予	-4600
的技术	-4601
ml	-4602
拍摄	-4603
▁dest	-4604
的主要	-4605
理想	-4606
urt	-4607
▁Road	-4608
ancy	-4609
人体	-4610
是不	-4611
▁complex	-4612
季度	-4613
itary	-4614
▁lo	-4615
自动化	-4616
▁bank	-4617
▁James	-4618
上了	-4619
Cont	-4620
▁born	-4621
辅助	-4622
▁innov	-4623
上述	-4624
RO	-4625
mat	-4626
▁fast	-4627
干部	-4628
ications	-4629
爱的	-4630
izing	-4631
开关	-4632
尽量	-4633
▁inform	-4634
▁display	-4635
冲击	-4636
alls	-4637
▁ability	-4638
▁achieve	-4639
udget	-4640
▁appoint	-4641
▁comfort	-4642
也就是	-4643
ulations	-4644
课堂	-4645
杭州	-4646
SS	-4647
是不是	-4648
▁sales	-4649
者的	-4650
▁platform	-4651
▁Inter	-4652
时的	-4653
▁sn	-4654
本人	-4655
imately	-4656
▁European	-4657
▁write	-4658
很有	-4659
▁interesting	-4660
▁serve	-4661
▁photos	-4662
英国	-4663
urning	-4664
Phone	-4665
▁condition	-4666
ston	-4667
ament	-4668
▁ut	-4669
”.	-4670
精度	-4671
ivil	-4672
▁color	-4673
▁Jack	-4674
rs	-4675
▁Research	-4676
rast	-4677
利于	-4678
服装	-4679
诚信	-4680
铁路	-4681
绝对	-4682
创意	-4683
还会	-4684
大多数	-4685
▁multiple	-4686
▁Education	-4687
清理	-4688
游客	-4689
是非常	-4690
omen	-4691
▁race	-4692
到的	-4693
comes	-4694
的企业	-4695
▁successful	-4696
▁served	-4697
▁collection	-4698
周期	-4699
▁Texas	-4700
思想	-4701
▁consult	-4702
One	-4703
首次	-4704
▁seven	-4705
的价格	-4706
清晰	-4707
mark	-4708
rench	-4709
机关	-4710
▁shoot	-4711
指出	-4712
▁towards	-4713
成交	-4714
预约	-4715
段时间	-4716
▁spent	-4717
上下	-4718
并不是	-4719
仍然	-4720
附近	-4721
ordin	-4722
专门	-4723
除尘	-4724
▁remember	-4725
▁prot	-4726
▁college	-4727
护理	-4728
扩大	-4729
注明	-4730
▁degree	-4731
▁language	-4732
有一个	-4733
女性	-4734
▁completed	-4735
ica	-4736
aught	-4737
怎么样	-4738
▁trip	-4739
▁assess	-4740
中小	-4741
净化	-4742
▁mag	-4743
系统的	-4744
并没有	-4745
机器人	-4746
▁Dan	-4747
百度	-4748
标志	-4749
上线	-4750
会计	-4751
▁gave	-4752
选用	-4753
成熟	-4754
德国	-4755
▁understanding	-4756
。【	-4757
▁fans	-4758
营造	-4759
加大	-4760
▁Ann	-4761
▁hands	-4762
usband	-4763
小的	-4764
▁style	-4765
水泥	-4766
LED	-4767
AA	-4768
▁farm	-4769
▁surpr	-4770
▁themselves	-4771
行的	-4772
▁amazing	-4773
此前	-4774
态度	-4775
▁Del	-4776
▁gas	-4777
部署	-4778
▁suff	-4779
▁distrib	-4780
▁Sim	-4781
▁Washington	-4782
日期	-4783
▁earlier	-4784
▁bal	-4785
修复	-4786
一旦	-4787
电缆	-4788
融资	-4789
每年	-4790
▁response	-4791
▁band	-4792
集成	-4793
公益	-4794
▁individuals	-4795
》、《	-4796
▁birth	-4797
enty	-4798
医药	-4799
▁manufact	-4800
▁residents	-4801
二维码	-4802
▁stage	-4803
▁touch	-4804
完美	-4805
▁weather	-4806
▁users	-4807
▁Out	-4808
▁Green	-4809
声音	-4810
▁pred	-4811
▁nation	-4812
▁economic	-4813
对象	-4814
等方面	-4815
ned	-4816
▁political	-4817
word	-4818
城区	-4819
▁sold	-4820
销量	-4821
▁serious	-4822
正规	-4823
▁usually	-4824
一致	-4825
▁Work	-4826
▁District	-4827
高质量	-4828
▁developed	-4829
▁mass	-4830
▁Management	-4831
许可	-4832
寻找	-4833
ements	-4834
以前	-4835
▁goes	-4836
cel	-4837
▁answer	-4838
大众	-4839
▁hour	-4840
挑选	-4841
umn	-4842
▁influ	-4843
▁exhib	-4844
大大	-4845
▁enter	-4846
气温	-4847
▁independ	-4848
曾经	-4849
orks	-4850
▁note	-4851
▁warm	-4852
▁album	-4853
不再	-4854
istics	-4855
▁mach	-4856
围绕	-4857
型号	-4858
▁quickly	-4859
加速	-4860
她的	-4861
策划	-4862
▁sust	-4863
SP	-4864
rote	-4865
专利	-4866
▁clin	-4867
▁passed	-4868
讨论	-4869
▁adult	-4870
▁fit	-4871
股东	-4872
edd	-4873
▁Book	-4874
注重	-4875
临床	-4876
aint	-4877
实验室	-4878
▁father	-4879
nds	-4880
微博	-4881
素质	-4882
做的	-4883
衣服	-4884
人民币	-4885
estern	-4886
▁volunte	-4887
纷纷	-4888
大利	-4889
▁effic	-4890
令人	-4891
大赛	-4892
面试	-4893
▁Spr	-4894
▁situation	-4895
剧情	-4896
ales	-4897
iding	-4898
突出	-4899
reci	-4900
在于	-4901
apan	-4902
▁businesses	-4903
怎样	-4904
▁ahead	-4905
▁growing	-4906
▁necessary	-4907
ran	-4908
ctions	-4909
模具	-4910
▁holid	-4911
rate	-4912
▁terms	-4913
uted	-4914
▁saying	-4915
计算机	-4916
ams	-4917
ona	-4918
有趣	-4919
They	-4920
▁billion	-4921
▁expert	-4922
▁eight	-4923
▁materials	-4924
▁Care	-4925
▁Club	-4926
▁piece	-4927
▁reach	-4928
用品	-4929
驱动	-4930
区别	-4931
▁jud	-4932
sec	-4933
▁aware	-4934
损失	-4935
自我	-4936
▁image	-4937
学科	-4938
▁Pal	-4939
care	-4940
家的	-4941
lim	-4942
▁strateg	-4943
▁Jes	-4944
▁interact	-4945
ico	-4946
▁code	-4947
深度	-4948
▁lic	-4949
▁>	-4950
▁closed	-4951
通信	-4952
危害	-4953
通讯	-4954
acing	-4955
▁wasn	-4956
时期	-4957
热情	-4958
现实	-4959
▁ten	-4960
========	-4961
提交	-4962
▁sense	-4963
人物	-4964
志愿者	-4965
▁Great	-4966
SC	-4967
发动机	-4968
▁thank	-4969
教练	-4970
TV	-4971
涂料	-4972
aith	-4973
▁sem	-4974
乐部	-4975
二手	-4976
传感	-4977
▁Dem	-4978
Se	-4979
手段	-4980
ype	-4981
▁lower	-4982
▁convers	-4983
DA	-4984
部位	-4985
的前	-4986
▁lif	-4987
论坛	-4988
全力	-4989
新区	-4990
▁System	-4991
sych	-4992
▁died	-4993
有点	-4994
▁highly	-4995
橡胶	-4996
零售	-4997
▁coach	-4998
▁drug	-4999
ruit	-5000
▁section	-5001
俱乐部	-5002
▁Bank	-5003
ceed	-5004
▁named	-5005
近年来	-5006
赢得	-5007
▁pric	-5008
▁options	-5009
▁Ob	-5010
春节	-5011
协调	-5012
▁attention	-5013
青岛	-5014
uled	-5015
温馨	-5016
▁activity	-5017
adem	-5018
iles	-5019
▁message	-5020
▁aw	-5021
身边	-5022
▁moving	-5023
▁trust	-5024
。。	-5025
▁General	-5026
切实	-5027
定的	-5028
▁arrest	-5029
新能源	-5030
▁Bel	-5031
▁surv	-5032
▁Open	-5033
多次	-5034
或许	-5035
idered	-5036
▁block	-5037
收获	-5038
高压	-5039
▁husband	-5040
By	-5041
上升	-5042
▁places	-5043
健身	-5044
口罩	-5045
面临	-5046
的主	-5047
足够	-5048
吸收	-5049
韩国	-5050
▁deliver	-5051
▁applications	-5052
实用	-5053
▁Wind	-5054
整治	-5055
强大的	-5056
▁arriv	-5057
一款	-5058
配备	-5059
new	-5060
iling	-5061
来看看	-5062
ened	-5063
▁Minister	-5064
Te	-5065
▁giving	-5066
日前	-5067
▁sil	-5068
黑色	-5069
攻击	-5070
终于	-5071
是由	-5072
案件	-5073
美容	-5074
▁Michael	-5075
▁feature	-5076
▁cat	-5077
▁dro	-5078
▁roll	-5079
风机	-5080
▁views	-5081
hips	-5082
▁instead	-5083
LE	-5084
便利	-5085
illage	-5086
▁England	-5087
厨房	-5088
福建	-5089
情绪	-5090
▁brought	-5091
也在	-5092
扫描	-5093
情况下	-5094
▁shot	-5095
▁thinking	-5096
▁belie	-5097
▁felt	-5098
▁Det	-5099
平时	-5100
那个	-5101
▁sens	-5102
ourney	-5103
▁dream	-5104
▁Commission	-5105
日起	-5106
▁church	-5107
▁lab	-5108
ences	-5109
▁autom	-5110
的水	-5111
业绩	-5112
▁transport	-5113
称为	-5114
DF	-5115
养殖	-5116
物业	-5117
rial	-5118
院校	-5119
发作	-5120
▁appl	-5121
▁simply	-5122
凭借	-5123
地面	-5124
权益	-5125
中间	-5126
航空	-5127
▁beginning	-5128
种类	-5129
看起来	-5130
更有	-5131
force	-5132
▁Science	-5133
接下来	-5134
唯一	-5135
成分	-5136
给你	-5137
美观	-5138
▁Mod	-5139
将于	-5140
人数	-5141
dule	-5142
公示	-5143
的安全	-5144
wide	-5145
简单的	-5146
切割	-5147
力度	-5148
真空	-5149
概念	-5150
▁term	-5151
▁loved	-5152
orrow	-5153
乡村	-5154
等待	-5155
esterday	-5156
想到	-5157
▁communities	-5158
仪式	-5159
▁parts	-5160
Le	-5161
不了	-5162
每日	-5163
▁conference	-5164
申报	-5165
离开	-5166
▁evening	-5167
ror	-5168
▁River	-5169
▁finished	-5170
美好	-5171
蔬菜	-5172
▁challenges	-5173
判断	-5174
▁download	-5175
▁stock	-5176
vert	-5177
##	-5178
▁Dis	-5179
▁Bre	-5180
▁door	-5181
一线	-5182
▁Australia	-5183
▁fair	-5184
市场的	-5185
ocks	-5186
模型	-5187
asc	-5188
颗粒	-5189
▁remain	-5190
养老	-5191
house	-5192
▁slow	-5193
Is	-5194
线下	-5195
意味	-5196
▁requirements	-5197
▁ones	-5198
▁tast	-5199
专用	-5200
ancing	-5201
很难	-5202
要注意	-5203
▁instit	-5204
ception	-5205
▁benefits	-5206
yp	-5207
别人	-5208
chan	-5209
▁pull	-5210
▁fully	-5211
的心	-5212
▁Lake	-5213
破碎	-5214
▁hor	-5215
反映	-5216
拓展	-5217
一名	-5218
▁garden	-5219
▁session	-5220
▁directly	-5221
▁Bay	-5222
▁computer	-5223
最低	-5224
▁double	-5225
ength	-5226
竞技	-5227
olf	-5228
▁heard	-5229
OP	-5230
难度	-5231
优先	-5232
小米	-5233
▁Ital	-5234
订单	-5235
▁solutions	-5236
▁advice	-5237
yond	-5238
▁responsible	-5239
▁nature	-5240
步骤	-5241
▁science	-5242
▁physical	-5243
老年	-5244
win	-5245
一场	-5246
▁ri	-5247
isions	-5248
▁temper	-5249
▁user	-5250
青春	-5251
发放	-5252
方位	-5253
隔离	-5254
所有的	-5255
海外	-5256
Con	-5257
突然	-5258
▁Good	-5259
▁threat	-5260
金额	-5261
order	-5262
UN	-5263
where	-5264
▁equipment	-5265
▁active	-5266
▁shared	-5267
▁huge	-5268
赚钱	-5269
itiz	-5270
▁Sen	-5271
▁Twitter	-5272
cy	-5273
▁manager	-5274
报警	-5275
more	-5276
rian	-5277
▁brother	-5278
在一起	-5279
界面	-5280
▁White	-5281
▁culture	-5282
ago	-5283
有效的	-5284
AI	-5285
ae	-5286
电器	-5287
AG	-5288
本网	-5289
▁officials	-5290
对比	-5291
▁nearly	-5292
人类	-5293
强调	-5294
模块	-5295
▁surround	-5296
平衡	-5297
▁reflect	-5298
TM	-5299
较大	-5300
相互	-5301
Res	-5302
▁Rich	-5303
▁mount	-5304
▁Sing	-5305
▁tools	-5306
▁Well	-5307
▁dark	-5308
▁wrote	-5309
▁Mary	-5310
传递	-5311
之中	-5312
isl	-5313
raz	-5314
▁considered	-5315
在这个	-5316
日上午	-5317
▁cancer	-5318
的专业	-5319
才是	-5320
印刷	-5321
▁Cr	-5322
总是	-5323
反馈	-5324
▁moved	-5325
通风	-5326
孩子的	-5327
aling	-5328
便捷	-5329
多样	-5330
冒险	-5331
全市	-5332
社交	-5333
That	-5334
▁finally	-5335
bl	-5336
产权	-5337
▁extend	-5338
nown	-5339
尽管	-5340
▁disease	-5341
ya	-5342
家里	-5343
▁behav	-5344
Add	-5345
带领	-5346
MP	-5347
租赁	-5348
hest	-5349
▁Sub	-5350
人生	-5351
▁welcome	-5352
及其	-5353
▁cert	-5354
BS	-5355
应对	-5356
▁IN	-5357
▁strugg	-5358
▁itself	-5359
▁wrong	-5360
名字	-5361
alt	-5362
▁effective	-5363
▁wonderful	-5364
用途	-5365
cm	-5366
事实	-5367
ios	-5368
▁profession	-5369
女士	-5370
物理	-5371
▁Hist	-5372
民族	-5373
▁Over	-5374
▁Rober	-5375
▁turned	-5376
IV	-5377
rief	-5378
▁standard	-5379
得到了	-5380
▁states	-5381
调研	-5382
较为	-5383
大量的	-5384
▁Intern	-5385
▁Mart	-5386
▁Ant	-5387
▁demonst	-5388
武器	-5389
主持	-5390
补充	-5391
上一篇	-5392
gency	-5393
▁creating	-5394
amic	-5395
▁appreci	-5396
否则	-5397
change	-5398
▁initi	-5399
▁challenge	-5400
▁acqu	-5401
一天	-5402
▁Every	-5403
▁customer	-5404
▁**	-5405
▁spot	-5406
atter	-5407
▁excellent	-5408
攻略	-5409
▁Development	-5410
vant	-5411
Here	-5412
▁extrem	-5413
▁fix	-5414
板块	-5415
uses	-5416
▁exact	-5417
停止	-5418
ademic	-5419
的不	-5420
等奖	-5421
便是	-5422
访问	-5423
看着	-5424
▁gets	-5425
▁Flor	-5426
▁sched	-5427
就像	-5428
▁Island	-5429
后期	-5430
意思	-5431
just	-5432
opped	-5433
▁Canada	-5434
分子	-5435
dom	-5436
大会	-5437
▁daughter	-5438
▁accom	-5439
温暖	-5440
带着	-5441
特征	-5442
▁Plan	-5443
▁choose	-5444
重量	-5445
供应商	-5446
LS	-5447
TC	-5448
在此	-5449
感兴趣	-5450
".	-5451
▁senior	-5452
uit	-5453
的位置	-5454
▁Thom	-5455
orage	-5456
According	-5457
QQ	-5458
icine	-5459
群体	-5460
的效果	-5461
依法	-5462
发行	-5463
感到	-5464
bet	-5465
▁Sum	-5466
还在	-5467
参观	-5468
venue	-5469
二十	-5470
▁Institute	-5471
▁commercial	-5472
▁allows	-5473
据悉	-5474
是因为	-5475
▁brand	-5476
修改	-5477
erry	-5478
▁Japan	-5479
ht	-5480
ocation	-5481
eed	-5482
unk	-5483
▁Lear	-5484
▁concept	-5485
▁Let	-5486
ij	-5487
出来的	-5488
▁guid	-5489
▁epis	-5490
▁overall	-5491
incip	-5492
梦想	-5493
▁gives	-5494
inner	-5495
▁Ev	-5496
▁purpose	-5497
▁dry	-5498
▁unc	-5499
orial	-5500
▁efforts	-5501
▁Dec	-5502
侵权	-5503
▁workers	-5504
ocol	-5505
▁credit	-5506
▁football	-5507
▁himself	-5508
回答	-5509
rive	-5510
长时间	-5511
搅拌	-5512
客户的	-5513
noon	-5514
▁Class	-5515
▁journal	-5516
▁opening	-5517
IG	-5518
place	-5519
成的	-5520
机场	-5521
业主	-5522
注意事项	-5523
队的	-5524
▁Cong	-5525
收到	-5526
▁posted	-5527
▁helping	-5528
异常	-5529
▁increased	-5530
Me	-5531
白色	-5532
pects	-5533
▁Review	-5534
▁patient	-5535
rey	-5536
▁studies	-5537
几年	-5538
▁allowed	-5539
▁wish	-5540
▁budget	-5541
一份	-5542
放心	-5543
罗斯	-5544
无需	-5545
咱们	-5546
▁miles	-5547
眼睛	-5548
工程师	-5549
淘宝	-5550
适当	-5551
ota	-5552
平安	-5553
球迷	-5554
无人	-5555
▁capital	-5556
▁cam	-5557
照明	-5558
▁Char	-5559
▁mention	-5560
起到	-5561
▁fine	-5562
▁essential	-5563
考察	-5564
▁pm	-5565
▁federal	-5566
▁healthy	-5567
Tr	-5568
▁occur	-5569
▁followed	-5570
阵容	-5571
到达	-5572
利益	-5573
播放	-5574
MS	-5575
我校	-5576
主场	-5577
同步	-5578
▁mission	-5579
亚洲	-5580
▁scient	-5581
▁Central	-5582
实行	-5583
▁rev	-5584
▁Miss	-5585
▁wait	-5586
▁©	-5587
以为	-5588
▁sector	-5589
彩票	-5590
对此	-5591
raw	-5592
▁blood	-5593
▁homes	-5594
一路	-5595
能量	-5596
荣誉	-5597
关闭	-5598
arth	-5599
至少	-5600
很快	-5601
分布	-5602
▁British	-5603
含量	-5604
▁investment	-5605
博士	-5606
全新的	-5607
园区	-5608
竞赛	-5609
▁choice	-5610
rep	-5611
▁lay	-5612
▁Life	-5613
,《	-5614
存储	-5615
▁Then	-5616
▁www	-5617
快递	-5618
无论是	-5619
▁helped	-5620
人力	-5621
▁fail	-5622
▁joined	-5623
▁Project	-5624
我们在	-5625
▁stress	-5626
porate	-5627
itude	-5628
overy	-5629
影视	-5630
意味着	-5631
ivery	-5632
icken	-5633
▁Engine	-5634
餐厅	-5635
世纪	-5636
模板	-5637
▁costs	-5638
rang	-5639
▁photo	-5640
▁teaching	-5641
都要	-5642
描述	-5643
成就	-5644
转型	-5645
redients	-5646
每次	-5647
股份有限公司	-5648
mail	-5649
▁Government	-5650
云南	-5651
也就	-5652
▁emb	-5653
▁vehicle	-5654
▁spread	-5655
标题	-5656
总经理	-5657
千万	-5658
▁Arch	-5659
压缩	-5660
电气	-5661
▁Tom	-5662
opping	-5663
大幅	-5664
石油	-5665
Des	-5666
▁wants	-5667
▁correct	-5668
▁novel	-5669
lying	-5670
入口	-5671
lished	-5672
arily	-5673
传感器	-5674
第一时间	-5675
board	-5676
主体	-5677
▁Cup	-5678
为客户	-5679
▁prem	-5680
▁Spe	-5681
ounds	-5682
▁emot	-5683
▁completely	-5684
慢慢	-5685
▁Time	-5686
▁runs	-5687
下方	-5688
pri	-5689
类似	-5690
▁Hel	-5691
更为	-5692
OC	-5693
答案	-5694
oman	-5695
▁tim	-5696
性价	-5697
▁leader	-5698
报考	-5699
atures	-5700
图书	-5701
▁presented	-5702
红色	-5703
▁Angel	-5704
▁Sam	-5705
▁wild	-5706
PE	-5707
▁picture	-5708
东方	-5709
葡萄	-5710
积分	-5711
日下午	-5712
▁traditional	-5713
▁demand	-5714
人群	-5715
先后	-5716
icate	-5717
显得	-5718
▁guide	-5719
osh	-5720
Dr	-5721
▁avoid	-5722
▁sometimes	-5723
逐步	-5724
▁speak	-5725
▁。	-5726
ologies	-5727
全省	-5728
损坏	-5729
▁impress	-5730
▁station	-5731
味道	-5732
ses	-5733
应用于	-5734
流动	-5735
考核	-5736
蛋白	-5737
▁update	-5738
▁Jesus	-5739
ube	-5740
演员	-5741
创作	-5742
哪个	-5743
ander	-5744
▁types	-5745
▁French	-5746
▁client	-5747
ctors	-5748
▁spirit	-5749
▁为	-5750
两人	-5751
▁promot	-5752
低于	-5753
有序	-5754
box	-5755
据了解	-5756
▁largest	-5757
Pl	-5758
oma	-5759
第一次	-5760
▁helps	-5761
下一篇	-5762
三年	-5763
地铁	-5764
▁leadership	-5765
车间	-5766
允许	-5767
喜欢的	-5768
▁changed	-5769
篮球	-5770
hens	-5771
▁rock	-5772
▁dom	-5773
Copyright	-5774
犯罪	-5775
▁subst	-5776
▁tried	-5777
anta	-5778
well	-5779
于是	-5780
ixt	-5781
好了	-5782
游戏的	-5783
无限	-5784
▁Mal	-5785
构建	-5786
▁determin	-5787
▁transfer	-5788
》《	-5789
胜利	-5790
▁Lou	-5791
iverse	-5792
尝试	-5793
ooper	-5794
愿意	-5795
指挥	-5796
ado	-5797
▁peace	-5798
▁Design	-5799
▁print	-5800
▁artist	-5801
uty	-5802
▁eval	-5803
▁score	-5804
身份证	-5805
安全生产	-5806
isation	-5807
▁Family	-5808
▁Hospital	-5809
mp	-5810
ags	-5811
▁Sl	-5812
Post	-5813
的相关	-5814
做了	-5815
TA	-5816
▁journey	-5817
前往	-5818
长沙	-5819
▁hotel	-5820
意外	-5821
呼吸	-5822
冷却	-5823
▁eat	-5824
porary	-5825
▁pow	-5826
▁Town	-5827
▁Trump	-5828
的一些	-5829
天下	-5830
走进	-5831
▁feet	-5832
▁images	-5833
辅导	-5834
▁Mac	-5835
森林	-5836
研究生	-5837
工资	-5838
不需要	-5839
防腐	-5840
含有	-5841
▁Water	-5842
▁setting	-5843
行情	-5844
uce	-5845
men	-5846
▁approx	-5847
▁passion	-5848
uing	-5849
期货	-5850
arant	-5851
精品	-5852
▁Republic	-5853
▁limited	-5854
难以	-5855
郑州	-5856
ronic	-5857
▁origin	-5858
土地	-5859
学术	-5860
FC	-5861
专题	-5862
售后服务	-5863
________	-5864
展览	-5865
承诺	-5866
是有	-5867
整合	-5868
▁Ben	-5869
see	-5870
▁regarding	-5871
水果	-5872
CH	-5873
▁Rob	-5874
思维	-5875
电压	-5876
的事情	-5877
似乎	-5878
当天	-5879
摄影	-5880
景观	-5881
润滑	-5882
设计师	-5883
inn	-5884
▁cold	-5885
▁Att	-5886
▁carry	-5887
▁continued	-5888
商城	-5889
que	-5890
▁save	-5891
andemic	-5892
▁govern	-5893
▁master	-5894
▁numbers	-5895
Or	-5896
鼓励	-5897
师生	-5898
错误	-5899
▁rain	-5900
性价比	-5901
yt	-5902
▁AN	-5903
▁commit	-5904
▁department	-5905
总体	-5906
ervation	-5907
wise	-5908
Ste	-5909
▁Camp	-5910
病例	-5911
▁Met	-5912
While	-5913
▁pressure	-5914
整改	-5915
▁liter	-5916
Sc	-5917
合法	-5918
▁lack	-5919
▁Smith	-5920
▁steps	-5921
其次	-5922
▁vacc	-5923
roud	-5924
▁Cle	-5925
家人	-5926
illa	-5927
▁feeling	-5928
发的	-5929
食用	-5930
▁Acc	-5931
引进	-5932
应当	-5933
账号	-5934
很容易	-5935
olic	-5936
▁technical	-5937
apter	-5938
▁Florida	-5939
相关的	-5940
▁categ	-5941
属性	-5942
▁beyond	-5943
去了	-5944
参赛	-5945
▁happened	-5946
ady	-5947
rated	-5948
cn	-5949
▁train	-5950
▁measure	-5951
招标	-5952
set	-5953
▁gold	-5954
还没有	-5955
效益	-5956
本赛季	-5957
▁worksh	-5958
不良	-5959
晚上	-5960
▁initial	-5961
户外	-5962
▁Carol	-5963
提高了	-5964
差异	-5965
▁organizations	-5966
▁pattern	-5967
MA	-5968
▁whose	-5969
▁owners	-5970
▁afternoon	-5971
▁identify	-5972
▁Cap	-5973
常规	-5974
IF	-5975
表演	-5976
旗下	-5977
imb	-5978
化妆	-5979
▁Sur	-5980
NA	-5981
队员	-5982
▁existing	-5983
",	-5984
▁solution	-5985
encies	-5986
gal	-5987
地下	-5988
.|	-5989
▁tick	-5990
小程序	-5991
药品	-5992
日至	-5993
成为了	-5994
▁middle	-5995
你可以	-5996
▁cast	-5997
▁Fore	-5998
▁offered	-5999
也可	-6000
所需	-6001
▁scene	-6002
▁IS	-6003
▁expand	-6004
▁jobs	-6005
▁appropri	-6006
贵州	-6007
采访	-6008
rab	-6009
▁Phil	-6010
这也是	-6011
▁sustain	-6012
▁background	-6013
haps	-6014
Do	-6015
▁Foundation	-6016
urd	-6017
旅行	-6018
下了	-6019
构成	-6020
ection	-6021
▁normal	-6022
▁integr	-6023
现在的	-6024
urrent	-6025
岁的	-6026
高中	-6027
itable	-6028
一条	-6029
病情	-6030
▁continues	-6031
长的	-6032
地位	-6033
inary	-6034
辖区	-6035
fast	-6036
asp	-6037
大数据	-6038
!**	-6039
eting	-6040
▁Sun	-6041
▁sale	-6042
工商	-6043
批发	-6044
▁excited	-6045
▁updated	-6046
一位	-6047
uman	-6048
▁recipe	-6049
▁parking	-6050
▁speed	-6051
iant	-6052
澳门	-6053
▁Mil	-6054
▁sports	-6055
lor	-6056
▁facilities	-6057
三分	-6058
带来了	-6059
▁operations	-6060
就在	-6061
山西	-6062
快捷	-6063
CT	-6064
适用	-6065
▁basis	-6066
▁salt	-6067
陕西	-6068
旗舰	-6069
共有	-6070
▁spend	-6071
oving	-6072
▁difference	-6073
bon	-6074
▁district	-6075
izes	-6076
▁option	-6077
独特的	-6078
▁rules	-6079
交警	-6080
▁developing	-6081
▁owner	-6082
▁critical	-6083
▁Africa	-6084
產品	-6085
▁immediately	-6086
▁announce	-6087
▁Team	-6088
▁knew	-6089
并在	-6090
cell	-6091
▁blue	-6092
▁IT	-6093
oms	-6094
irmed	-6095
的生产	-6096
itely	-6097
主办	-6098
简称	-6099
▁architect	-6100
便宜	-6101
▁consist	-6102
冬季	-6103
变形	-6104
芯片	-6105
▁primary	-6106
▁increasing	-6107
常见的	-6108
我们将	-6109
▁decl	-6110
上传	-6111
如果您	-6112
like	-6113
ki	-6114
etic	-6115
▁Fire	-6116
CO	-6117
普遍	-6118
▁accur	-6119
数学	-6120
▁egg	-6121
东莞	-6122
市场上	-6123
▁Gold	-6124
▁partner	-6125
%;	-6126
周围	-6127
iller	-6128
▁proced	-6129
▁Centre	-6130
▁experienced	-6131
身上	-6132
▁finish	-6133
抖音	-6134
简历	-6135
魅力	-6136
的信息	-6137
rael	-6138
▁Mad	-6139
各大	-6140
招商	-6141
▁Av	-6142
国外	-6143
▁reb	-6144
▁explore	-6145
umber	-6146
▁population	-6147
面向	-6148
Don	-6149
▁Google	-6150
腾讯	-6151
View	-6152
rupt	-6153
▁pet	-6154
yan	-6155
▁beg	-6156
至今	-6157
本地	-6158
istan	-6159
▁insurance	-6160
▁stuff	-6161
▁letter	-6162
going	-6163
▁bill	-6164
▁Super	-6165
iled	-6166
``	-6167
▁Oh	-6168
From	-6169
房地产	-6170
▁Rem	-6171
防范	-6172
▁Top	-6173
▁communication	-6174
多少钱	-6175
可以通过	-6176
▁enh	-6177
ipped	-6178
inger	-6179
▁signed	-6180
节省	-6181
RA	-6182
热水	-6183
uries	-6184
土壤	-6185
ibly	-6186
▁err	-6187
▁unit	-6188
分离	-6189
的选择	-6190
annel	-6191
宠物	-6192
▁sort	-6193
二次	-6194
▁Hill	-6195
iation	-6196
号码	-6197
▁Christian	-6198
货物	-6199
美术	-6200
精致	-6201
▁Ins	-6202
▁injury	-6203
陶瓷	-6204
刚刚	-6205
透明	-6206
PA	-6207
ously	-6208
▁prec	-6209
omb	-6210
FL	-6211
相应的	-6212
变成	-6213
转化	-6214
▁Company	-6215
EW	-6216
房子	-6217
het	-6218
大概	-6219
是指	-6220
ferences	-6221
rd	-6222
rag	-6223
▁imag	-6224
前期	-6225
依旧	-6226
房间	-6227
锅炉	-6228
▁Mag	-6229
▁trade	-6230
rows	-6231
▁straight	-6232
▁compared	-6233
igation	-6234
物资	-6235
爱情	-6236
▁dat	-6237
的质量	-6238
▁Most	-6239
▁estate	-6240
名的	-6241
次数	-6242
预测	-6243
gen	-6244
iences	-6245
账户	-6246
新技术	-6247
检察	-6248
oyal	-6249
pective	-6250
江西	-6251
Not	-6252
▁easily	-6253
▁creative	-6254
▁paid	-6255
也没有	-6256
outhern	-6257
ka	-6258
▁medium	-6259
▁sy	-6260
▁north	-6261
rapy	-6262
▁spring	-6263
▁pictures	-6264
rees	-6265
▁Medical	-6266
档案	-6267
生存	-6268
osing	-6269
▁associated	-6270
▁exerc	-6271
层次	-6272
客户端	-6273
轴承	-6274
而在	-6275
记忆	-6276
▁remains	-6277
以上就是	-6278
式的	-6279
term	-6280
▁ele	-6281
ken	-6282
我公司	-6283
DC	-6284
优良	-6285
消除	-6286
▁evidence	-6287
人在	-6288
▁Big	-6289
休息	-6290
iment	-6291
▁sleep	-6292
拿到	-6293
▁THE	-6294
▁baby	-6295
ulated	-6296
tr	-6297
▁yesterday	-6298
全程	-6299
rie	-6300
▁Sol	-6301
ying	-6302
▁Ber	-6303
▁Scott	-6304
▁frequ	-6305
▁practices	-6306
HS	-6307
▁neighbor	-6308
▁meaning	-6309
▁Chief	-6310
acity	-6311
▁competition	-6312
▁looked	-6313
standing	-6314
km	-6315
第五	-6316
这位	-6317
口碑	-6318
▁selected	-6319
彻底	-6320
用来	-6321
▁pandemic	-6322
sequ	-6323
▁schedule	-6324
▁established	-6325
信心	-6326
做法	-6327
四个	-6328
▁altern	-6329
Sp	-6330
▁Committee	-6331
发送	-6332
排放	-6333
oves	-6334
▁charge	-6335
住宅	-6336
处置	-6337
现金	-6338
▁react	-6339
reek	-6340
▁central	-6341
hi	-6342
都知道	-6343
cing	-6344
▁shown	-6345
▁Web	-6346
仅供	-6347
过的	-6348
iced	-6349
后来	-6350
▁reduce	-6351
多了	-6352
▁Hot	-6353
▁faith	-6354
▁Rel	-6355
▁Society	-6356
设立	-6357
超市	-6358
mine	-6359
▁Form	-6360
▁listed	-6361
喜爱	-6362
烈的	-6363
转换	-6364
▁teacher	-6365
▁ST	-6366
▁structure	-6367
▁lots	-6368
不限	-6369
大道	-6370
▁uses	-6371
▁experiences	-6372
搭建	-6373
曝光	-6374
律师	-6375
IA	-6376
▁particularly	-6377
禁止	-6378
▁military	-6379
大队	-6380
排查	-6381
▁mis	-6382
▁Rock	-6383
▁Valley	-6384
神经	-6385
▁pool	-6386
建材	-6387
电路	-6388
荣耀	-6389
加油	-6390
国内外	-6391
▁Arts	-6392
把握	-6393
▁Week	-6394
紧张	-6395
▁benefit	-6396
▁entertain	-6397
产量	-6398
▁showed	-6399
新车	-6400
一是	-6401
osition	-6402
:[	-6403
感情	-6404
▁attract	-6405
▁=	-6406
国产	-6407
tained	-6408
Bl	-6409
的过程中	-6410
气象	-6411
▁pieces	-6412
ipp	-6413
ears	-6414
释放	-6415
采用了	-6416
Sub	-6417
京东	-6418
Now	-6419
▁eye	-6420
▁seeing	-6421
ette	-6422
保健	-6423
舞台	-6424
联系方式	-6425
▁contain	-6426
的外	-6427
后续	-6428
ros	-6429
青少年	-6430
▁opin	-6431
协助	-6432
▁CEO	-6433
▁classes	-6434
维持	-6435
▁prices	-6436
▁Also	-6437
▁resident	-6438
▁Ham	-6439
大气	-6440
尽快	-6441
引擎	-6442
▁Alex	-6443
带动	-6444
orney	-6445
▁status	-6446
阳市	-6447
锻炼	-6448
▁weight	-6449
za	-6450
动画	-6451
▁Brown	-6452
学生的	-6453
▁driving	-6454
▁load	-6455
▁effects	-6456
基层	-6457
▁Pet	-6458
防疫	-6459
▁beat	-6460
保存	-6461
填写	-6462
▁cris	-6463
厚度	-6464
▁enjoyed	-6465
okes	-6466
iques	-6467
▁force	-6468
Ne	-6469
诊断	-6470
亮点	-6471
oles	-6472
▁south	-6473
▁rooms	-6474
▁rob	-6475
机动	-6476
▁Franc	-6477
▁sweet	-6478
▁instruct	-6479
▁Wood	-6480
▁couldn	-6481
▁ID	-6482
la	-6483
死亡	-6484
OW	-6485
密度	-6486
的中	-6487
▁gone	-6488
▁Lead	-6489
▁grant	-6490
▁highest	-6491
▁thous	-6492
走势	-6493
精心	-6494
十年	-6495
state	-6496
日报	-6497
▁Other	-6498
▁thanks	-6499
▁Mount	-6500
▁eyes	-6501
俄罗斯	-6502
回到	-6503
男子	-6504
▁snow	-6505
night	-6506
则是	-6507
;(	-6508
保留	-6509
ini	-6510
▁Offic	-6511
▁Vis	-6512
▁onto	-6513
▁Museum	-6514
▁propos	-6515
▁rates	-6516
Qu	-6517
终端	-6518
生产的	-6519
▁winter	-6520
lands	-6521
▁rent	-6522
出版	-6523
新鲜	-6524
▁Div	-6525
更高	-6526
举报	-6527
▁funding	-6528
前景	-6529
海南	-6530
▁Today	-6531
▁proud	-6532
.(	-6533
前的	-6534
ffee	-6535
▁Vir	-6536
ooth	-6537
ky	-6538
漫画	-6539
▁opened	-6540
▁Nov	-6541
▁teachers	-6542
▁economy	-6543
▁discussion	-6544
▁Real	-6545
棋牌	-6546
或是	-6547
nded	-6548
苏州	-6549
▁outd	-6550
备案	-6551
bert	-6552
bre	-6553
引领	-6554
▁Champions	-6555
搭载	-6556
▁traffic	-6557
万人	-6558
电梯	-6559
▁sugar	-6560
出去	-6561
获得了	-6562
undred	-6563
▁talent	-6564
▁sources	-6565
齐全	-6566
▁chem	-6567
▁dedicated	-6568
强大	-6569
级别	-6570
igan	-6571
▁http	-6572
PR	-6573
UT	-6574
职责	-6575
出发	-6576
实在	-6577
三大	-6578
icks	-6579
▁Data	-6580
arr	-6581
fit	-6582
ship	-6583
icious	-6584
生产线	-6585
单元	-6586
就有	-6587
part	-6588
▁holiday	-6589
ulture	-6590
▁articles	-6591
型的	-6592
毕业生	-6593
▁basic	-6594
▁bowl	-6595
han	-6596
▁sell	-6597
出现了	-6598
▁victim	-6599
电流	-6600
肌肤	-6601
orthern	-6602
▁haven	-6603
▁although	-6604
迎来	-6605
▁的	-6606
berg	-6607
居住	-6608
▁Under	-6609
或者是	-6610
▁adop	-6611
▁relig	-6612
▁standards	-6613
在中国	-6614
设计的	-6615
imal	-6616
About	-6617
破坏	-6618
全方位	-6619
▁wall	-6620
好评	-6621
▁ge	-6622
多家	-6623
miss	-6624
响应	-6625
▁doub	-6626
MC	-6627
印象	-6628
院长	-6629
▁raised	-6630
更好地	-6631
▁occas	-6632
▁learned	-6633
接近	-6634
▁links	-6635
▁butter	-6636
世界杯	-6637
▁Wil	-6638
振动	-6639
设定	-6640
▁Bill	-6641
▁Free	-6642
下去	-6643
网页	-6644
记得	-6645
时光	-6646
解答	-6647
▁youth	-6648
无线	-6649
的热	-6650
》(	-6651
预期	-6652
▁nut	-6653
▁glass	-6654
放弃	-6655
▁artists	-6656
在使用	-6657
▁ing	-6658
▁Profess	-6659
生素	-6660
选购	-6661
▁virt	-6662
回家	-6663
▁ble	-6664
广西	-6665
ternal	-6666
▁fourth	-6667
▁《	-6668
硬件	-6669
较高	-6670
:(	-6671
▁bottom	-6672
▁supply	-6673
▁properties	-6674
司机	-6675
和谐	-6676
ademy	-6677
▁survey	-6678
范围内	-6679
法规	-6680
辽宁	-6681
iers	-6682
▁compl	-6683
的感觉	-6684
ellow	-6685
不够	-6686
新生	-6687
vere	-6688
▁Thanks	-6689
为你	-6690
印度	-6691
验证	-6692
▁Two	-6693
出租	-6694
厂商	-6695
ecause	-6696
疑问	-6697
▁Grand	-6698
▁maybe	-6699
说的	-6700
▁poll	-6701
▁Matt	-6702
表明	-6703
谢谢	-6704
Che	-6705
▁doctor	-6706
也许	-6707
▁ton	-6708
▁serving	-6709
ooking	-6710
▁Que	-6711
▁adding	-6712
▁damage	-6713
▁stream	-6714
门店	-6715
瞬间	-6716
精密	-6717
▁testing	-6718
En	-6719
救援	-6720
▁laws	-6721
截止	-6722
积累	-6723
思考	-6724
生意	-6725
核酸	-6726
▁calls	-6727
▁names	-6728
夏季	-6729
anche	-6730
▁storage	-6731
▁academic	-6732
引发	-6733
是最	-6734
▁citiz	-6735
▁centre	-6736
life	-6737
▁previously	-6738
▁values	-6739
▁biggest	-6740
▁Music	-6741
itz	-6742
济南	-6743
介绍了	-6744
,**	-6745
▁confirmed	-6746
落地	-6747
品牌的	-6748
委会	-6749
▁trail	-6750
▁Why	-6751
技术的	-6752
▁lines	-6753
▁People	-6754
▁sites	-6755
▁Manager	-6756
▁updates	-6757
功效	-6758
works	-6759
高达	-6760
练习	-6761
rim	-6762
下跌	-6763
漂亮	-6764
传统的	-6765
很高	-6766
These	-6767
▁laun	-6768
年级	-6769
仔细	-6770
一代	-6771
多元	-6772
▁Israel	-6773
排行	-6774
ycle	-6775
odes	-6776
irection	-6777
▁vote	-6778
vention	-6779
▁notice	-6780
旋转	-6781
对接	-6782
net	-6783
▁climate	-6784
打击	-6785
改进	-6786
校长	-6787
▁advant	-6788
匹配	-6789
护栏	-6790
▁fem	-6791
耐磨	-6792
免疫	-6793
爱心	-6794
▁Press	-6795
.||	-6796
导航	-6797
上去	-6798
▁Conference	-6799
▁Get	-6800
▁investigation	-6801
▁Sa	-6802
提供的	-6803
▁strength	-6804
二是	-6805
可见	-6806
body	-6807
LA	-6808
▁chief	-6809
产品质量	-6810
▁purchase	-6811
▁max	-6812
press	-6813
▁diagn	-6814
正是	-6815
▁dress	-6816
消耗	-6817
Get	-6818
iable	-6819
▁bedroom	-6820
农民	-6821
▁Main	-6822
▁driver	-6823
▁delivery	-6824
体的	-6825
▁pages	-6826
对外	-6827
▁remind	-6828
建造	-6829
ulty	-6830
▁Vol	-6831
讲座	-6832
while	-6833
olars	-6834
▁heavy	-6835
成立于	-6836
ero	-6837
有没有	-6838
▁compon	-6839
▁Win	-6840
▁Exper	-6841
▁alone	-6842
▁disapp	-6843
soft	-6844
▁drop	-6845
cript	-6846
SA	-6847
姆斯	-6848
明白	-6849
▁Social	-6850
基本上	-6851
此时	-6852
lines	-6853
essions	-6854
▁managed	-6855
ala	-6856
▁civil	-6857
▁sharing	-6858
▁appropriate	-6859
障碍	-6860
绿化	-6861
水的	-6862
用户的	-6863
▁Mex	-6864
厚的	-6865
▁voice	-6866
▁society	-6867
▁Elect	-6868
itar	-6869
盈利	-6870
▁kept	-6871
面上	-6872
▁records	-6873
▁Times	-6874
签订	-6875
igned	-6876
▁pen	-6877
▁facility	-6878
!-	-6879
一键	-6880
节约	-6881
▁talking	-6882
▁produced	-6883
▁characters	-6884
库存	-6885
▁funds	-6886
▁polic	-6887
ENT	-6888
实现了	-6889
▁killed	-6890
录取	-6891
夏天	-6892
让我	-6893
ola	-6894
▁committed	-6895
▁truly	-6896
gl	-6897
agram	-6898
▁reviews	-6899
▁leaving	-6900
▁Library	-6901
▁reserved	-6902
场地	-6903
门窗	-6904
ilding	-6905
PV	-6906
▁estim	-6907
▁refer	-6908
对应	-6909
▁mechan	-6910
▁Journal	-6911
显著	-6912
乐趣	-6913
永远	-6914
▁item	-6915
派出	-6916
▁offering	-6917
亿美元	-6918
PM	-6919
▁launch	-6920
▁struct	-6921
▁upcoming	-6922
法国	-6923
▁dang	-6924
▁Internet	-6925
▁George	-6926
原来	-6927
atal	-6928
两年	-6929
传承	-6930
进攻	-6931
了解到	-6932
▁fant	-6933
所谓	-6934
▁Award	-6935
的环境	-6936
确诊	-6937
深刻	-6938
icago	-6939
需要注意	-6940
▁tree	-6941
体检	-6942
采集	-6943
▁legisl	-6944
retary	-6945
▁Author	-6946
也将	-6947
▁relevant	-6948
▁revealed	-6949
▁Click	-6950
红包	-6951
领域的	-6952
isher	-6953
▁electric	-6954
atre	-6955
roid	-6956
▁dram	-6957
▁independent	-6958
▁cru	-6959
▁paint	-6960
▁map	-6961
anging	-6962
老板	-6963
▁methods	-6964
▁situ	-6965
▁scheduled	-6966
看来	-6967
▁agreement	-6968
小型	-6969
▁trou	-6970
unately	-6971
是个	-6972
实际上	-6973
burg	-6974
ommod	-6975
oto	-6976
▁den	-6977
我市	-6978
合肥	-6979
女孩	-6980
手续	-6981
▁Star	-6982
ulate	-6983
▁新	-6984
想法	-6985
▁ended	-6986
▁century	-6987
定义	-6988
▁minute	-6989
▁prepared	-6990
每个人	-6991
text	-6992
▁library	-6993
挖掘	-6994
起了	-6995
豪华	-6996
▁pros	-6997
活动的	-6998
▁https	-6999
至于	-7000
ula	-7001
▁vs	-7002
▁Mel	-7003
▁surg	-7004
apers	-7005
▁officer	-7006
▁mental	-7007
▁Even	-7008
不一样的	-7009
解释	-7010
使用寿命	-7011
进球	-7012
火灾	-7013
厦门	-7014
思路	-7015
ucky	-7016
▁length	-7017
延长	-7018
▁Lord	-7019
▁street	-7020
▁election	-7021
ker	-7022
项目的	-7023
▁manage	-7024
指南	-7025
比赛中	-7026
高清	-7027
hew	-7028
▁Disc	-7029
未经	-7030
的治疗	-7031
第三方	-7032
▁shall	-7033
▁Since	-7034
人口	-7035
防治	-7036
SE	-7037
中文	-7038
投诉	-7039
燃烧	-7040
担任	-7041
▁ult	-7042
好看	-7043
▁scored	-7044
▁covered	-7045
关心	-7046
▁device	-7047
使命	-7048
▁fab	-7049
---	-7050
▁caused	-7051
▁reasons	-7052
登陆	-7053
仪表	-7054
村民	-7055
▁doll	-7056
▁leaves	-7057
itness	-7058
▁Congress	-7059
女人	-7060
取消	-7061
形势	-7062
现有	-7063
bour	-7064
▁Robert	-7065
节日	-7066
阿里	-7067
▁Micro	-7068
▁despite	-7069
▁incident	-7070
了很多	-7071
▁Aut	-7072
▁sch	-7073
▁Power	-7074
▁surface	-7075
▁except	-7076
rastructure	-7077
▁Union	-7078
▁reached	-7079
海洋	-7080
第十	-7081
错过	-7082
using	-7083
▁definitely	-7084
到位	-7085
对其	-7086
▁thoughts	-7087
▁restaurant	-7088
▁Check	-7089
▁Any	-7090
难题	-7091
mar	-7092
▁winning	-7093
助攻	-7094
知识产权	-7095
▁walking	-7096
比分	-7097
▁income	-7098
▁gun	-7099
▁II	-7100
开通	-7101
▁bird	-7102
版权所有	-7103
However	-7104
▁executive	-7105
CP	-7106
以免	-7107
▁starts	-7108
签约	-7109
不断的	-7110
原材料	-7111
▁drink	-7112
▁Tor	-7113
密码	-7114
▁fish	-7115
咖啡	-7116
免责	-7117
azine	-7118
▁Play	-7119
bed	-7120
发出	-7121
同比增长	-7122
▁window	-7123
▁Fil	-7124
工作中	-7125
大力	-7126
这类	-7127
小伙伴	-7128
的能力	-7129
好友	-7130
▁environmental	-7131
▁establish	-7132
▁showing	-7133
临时	-7134
Rec	-7135
主力	-7136
新冠肺炎	-7137
fr	-7138
DP	-7139
yer	-7140
▁strate	-7141
想象	-7142
成型	-7143
▁tips	-7144
▁psych	-7145
活性	-7146
▁plus	-7147
▁Ret	-7148
▁strategy	-7149
▁alle	-7150
▁focused	-7151
▁poor	-7152
远程	-7153
安卓	-7154
母亲	-7155
▁Head	-7156
▁prefer	-7157
▁slight	-7158
ellig	-7159
快来	-7160
将其	-7161
Thank	-7162
▁Technology	-7163
▁Land	-7164
▁mobile	-7165
▁brief	-7166
部的	-7167
联系电话	-7168
商场	-7169
▁officers	-7170
▁missing	-7171
antly	-7172
▁older	-7173
路上	-7174
▁micro	-7175
▁measures	-7176
known	-7177
她们	-7178
携手	-7179
也不会	-7180
批准	-7181
翻译	-7182
▁sea	-7183
https	-7184
补贴	-7185
说道	-7186
可能是	-7187
itors	-7188
dd	-7189
日子	-7190
pan	-7191
▁agency	-7192
▁fan	-7193
usion	-7194
▁Fund	-7195
▁cream	-7196
edy	-7197
可在	-7198
成品	-7199
我们可以	-7200
园林	-7201
-[[	-7202
iance	-7203
elines	-7204
▁separate	-7205
▁copy	-7206
一流	-7207
缓解	-7208
▁episode	-7209
主营	-7210
心里	-7211
▁View	-7212
▁assistance	-7213
办事	-7214
白斑	-7215
!!!	-7216
讲述	-7217
ashion	-7218
随意	-7219
假如	-7220
形状	-7221
achel	-7222
▁veter	-7223
给了	-7224
▁scen	-7225
stract	-7226
开心	-7227
Thanks	-7228
▁landsc	-7229
父亲	-7230
▁forms	-7231
▁Democr	-7232
算是	-7233
asy	-7234
▁nine	-7235
信任	-7236
到来	-7237
接口	-7238
tenance	-7239
abilities	-7240
DS	-7241
爱好	-7242
透露	-7243
大师	-7244
▁fram	-7245
不知	-7246
经销	-7247
▁cry	-7248
▁princip	-7249
▁shop	-7250
集体	-7251
协作	-7252
售价	-7253
........	-7254
开拓	-7255
▁memory	-7256
篮板	-7257
▁produce	-7258
▁victory	-7259
硕士	-7260
▁Show	-7261
成人	-7262
▁wid	-7263
▁Rad	-7264
Up	-7265
融入	-7266
▁campus	-7267
RC	-7268
一边	-7269
排水	-7270
需要的	-7271
北京市	-7272
生活的	-7273
▁purs	-7274
asure	-7275
先进的	-7276
手动	-7277
▁See	-7278
▁Special	-7279
▁connection	-7280
▁incred	-7281
Click	-7282
ownload	-7283
▁tables	-7284
颜值	-7285
一系列	-7286
rowd	-7287
atively	-7288
建成	-7289
电磁	-7290
未来的	-7291
▁Network	-7292
智能化	-7293
osis	-7294
▁corner	-7295
▁concerns	-7296
行驶	-7297
rehens	-7298
▁capacity	-7299
虚拟	-7300
NBA	-7301
▁topics	-7302
上门	-7303
▁ur	-7304
司法	-7305
充足	-7306
▁advance	-7307
服务中心	-7308
别墅	-7309
马上	-7310
ech	-7311
收购	-7312
etry	-7313
oors	-7314
▁Love	-7315
火锅	-7316
amin	-7317
nergy	-7318
▁issued	-7319
▁Sy	-7320
手机版	-7321
▁Jose	-7322
▁Louis	-7323
▁professionals	-7324
大全	-7325
配送	-7326
越来越多	-7327
大学生	-7328
怎么办	-7329
▁calc	-7330
Your	-7331
▁topic	-7332
康复	-7333
不多	-7334
普及	-7335
路线	-7336
车主	-7337
▁animals	-7338
▁machine	-7339
第一个	-7340
idge	-7341
▁Rights	-7342
▁monitor	-7343
运转	-7344
▁Food	-7345
▁hundred	-7346
▁·	-7347
▁exist	-7348
日讯	-7349
▁Ir	-7350
▁Mont	-7351
▁Last	-7352
节奏	-7353
▁Tim	-7354
联系人	-7355
▁chair	-7356
▁本	-7357
低温	-7358
May	-7359
以上的	-7360
新疆	-7361
快的	-7362
Last	-7363
▁movement	-7364
Some	-7365
eline	-7366
van	-7367
▁exciting	-7368
▁maintain	-7369
▁African	-7370
多多	-7371
验收	-7372
▁vision	-7373
odcast	-7374
▁models	-7375
▁educational	-7376
▁cab	-7377
iny	-7378
▁brings	-7379
▁exactly	-7380
hab	-7381
▁sauce	-7382
MB	-7383
▁Nor	-7384
▁placed	-7385
▁Peter	-7386
▁shares	-7387
百分	-7388
财经	-7389
▁Beach	-7390
一个人	-7391
ript	-7392
▁tom	-7393
》。	-7394
预算	-7395
增加了	-7396
哪家	-7397
取得了	-7398
代码	-7399
液体	-7400
离子	-7401
▁wat	-7402
维生素	-7403
▁busy	-7404
▁transl	-7405
▁Inf	-7406
手表	-7407
女生	-7408
我是	-7409
摄像	-7410
allery	-7411
ipping	-7412
拒绝	-7413
钢管	-7414
的特点	-7415
财产	-7416
ste	-7417
▁Many	-7418
▁finding	-7419
▁guests	-7420
PL	-7421
ords	-7422
anda	-7423
oop	-7424
▁veget	-7425
扫码	-7426
信息化	-7427
▁appeared	-7428
▁species	-7429
处罚	-7430
▁Ver	-7431
▁emergency	-7432
oices	-7433
女子	-7434
树立	-7435
▁posts	-7436
▁trees	-7437
▁proposed	-7438
提出了	-7439
▁register	-7440
季节	-7441
点的	-7442
财富	-7443
都没有	-7444
▁recip	-7445
ework	-7446
▁Thomas	-7447
书记	-7448
enture	-7449
ifications	-7450
甘肃	-7451
语音	-7452
占地	-7453
▁entry	-7454
▁determine	-7455
投标	-7456
▁Pri	-7457
容量	-7458
▁files	-7459
▁Jul	-7460
▁*	-7461
不如	-7462
窗口	-7463
一体化	-7464
不易	-7465
▁rank	-7466
只需	-7467
周年	-7468
服务器	-7469
这就是	-7470
▁spending	-7471
封闭	-7472
▁plants	-7473
▁courses	-7474
▁processes	-7475
▁ban	-7476
levision	-7477
产生的	-7478
▁Atl	-7479
gn	-7480
合成	-7481
▁Festival	-7482
实体	-7483
▁Old	-7484
合适的	-7485
不得不	-7486
ownt	-7487
ixture	-7488
▁guarant	-7489
评审	-7490
邮件	-7491
amm	-7492
▁colle	-7493
▁Sil	-7494
▁der	-7495
学位	-7496
有多	-7497
研究院	-7498
atever	-7499
▁solid	-7500
股权	-7501
回归	-7502
全自动	-7503
rene	-7504
他在	-7505
▁Virgin	-7506
▁watching	-7507
▁hair	-7508
▁programme	-7509
下一步	-7510
竞争力	-7511
▁Som	-7512
▁direction	-7513
▁approximately	-7514
rick	-7515
▁UN	-7516
▁skin	-7517
可爱	-7518
edding	-7519
ita	-7520
▁Invest	-7521
▁Chicago	-7522
风景	-7523
▁researc	-7524
火箭	-7525
eless	-7526
▁plenty	-7527
▁waiting	-7528
都很	-7529
▁remove	-7530
防守	-7531
放入	-7532
缺乏	-7533
arge	-7534
ictor	-7535
都市	-7536
▁becoming	-7537
▁catch	-7538
ender	-7539
▁fill	-7540
▁Ter	-7541
▁girls	-7542
奥运	-7543
▁discover	-7544
的数据	-7545
▁supporting	-7546
▁documents	-7547
宗旨	-7548
物的	-7549
▁push	-7550
▁Los	-7551
estic	-7552
▁spect	-7553
ournament	-7554
▁certainly	-7555
佛山	-7556
实地	-7557
▁satis	-7558
有利于	-7559
▁useful	-7560
▁France	-7561
▁Chris	-7562
兄弟	-7563
中医	-7564
▁Each	-7565
▁absol	-7566
诈骗	-7567
▁fol	-7568
▁housing	-7569
▁appears	-7570
放置	-7571
▁restrict	-7572
▁u	-7573
爸爸	-7574
人工智能	-7575
▁datab	-7576
kins	-7577
▁During	-7578
▁university	-7579
▁relax	-7580
线的	-7581
专属	-7582
疫苗	-7583
▁Academy	-7584
eal	-7585
朋友们	-7586
▁charges	-7587
审批	-7588
董事长	-7589
▁Room	-7590
▁seeking	-7591
鉴定	-7592
性质	-7593
依托	-7594
区的	-7595
优秀的	-7596
用水	-7597
来源于	-7598
台湾	-7599
ena	-7600
uthors	-7601
▁listen	-7602
惊喜	-7603
跟着	-7604
▁Bi	-7605
如果是	-7606
形态	-7607
▁eth	-7608
▁sister	-7609
▁operating	-7610
▁Report	-7611
▁participants	-7612
ga	-7613
开学	-7614
ano	-7615
comm	-7616
▁Bur	-7617
树脂	-7618
▁figure	-7619
流行	-7620
展会	-7621
水分	-7622
▁Windows	-7623
谨慎	-7624
达成	-7625
友情	-7626
▁famous	-7627
▁greater	-7628
▁distance	-7629
▁Children	-7630
▁Security	-7631
免责声明	-7632
▁dinner	-7633
▁、	-7634
▁cash	-7635
▁Thank	-7636
icon	-7637
▁mer	-7638
防爆	-7639
▁Fun	-7640
▁returned	-7641
▁engineering	-7642
▁rare	-7643
▁friendly	-7644
的功能	-7645
▁task	-7646
ivered	-7647
▁factors	-7648
▁village	-7649
▁importance	-7650
按钮	-7651
万吨	-7652
紧急	-7653
钢板	-7654
等问题	-7655
friend	-7656
场的	-7657
深受	-7658
发病	-7659
电竞	-7660
fol	-7661
rant	-7662
ani	-7663
局部	-7664
▁cloud	-7665
▁techniques	-7666
▁km	-7667
数字化	-7668
▁Johnson	-7669
BI	-7670
▁songs	-7671
就来	-7672
▁ice	-7673
▁arrested	-7674
▁一	-7675
▁esc	-7676
▁van	-7677
▁accommod	-7678
几天	-7679
▁responsibility	-7680
优质的	-7681
分公司	-7682
▁raise	-7683
nel	-7684
很多的	-7685
意大利	-7686
ishes	-7687
过来	-7688
▁accident	-7689
电信	-7690
▁Ill	-7691
制冷	-7692
lear	-7693
▁chicken	-7694
合作伙伴	-7695
▁recorded	-7696
祝福	-7697
真正的	-7698
▁Media	-7699
▁counter	-7700
▁Administ	-7701
文学	-7702
进度	-7703
太多	-7704
秉承	-7705
中有	-7706
气质	-7707
短期	-7708
同时也	-7709
是很	-7710
稳定性	-7711
铝合金	-7712
的市场	-7713
▁performed	-7714
旨在	-7715
▁relationships	-7716
少的	-7717
▁Mass	-7718
unning	-7719
▁registered	-7720
湖人	-7721
asks	-7722
违规	-7723
高于	-7724
oos	-7725
▁achie	-7726
▁Di	-7727
多年的	-7728
▁Blue	-7729
Tw	-7730
家用	-7731
▁Bet	-7732
▁brain	-7733
▁Women	-7734
▁married	-7735
▁Ol	-7736
▁cultural	-7737
噪音	-7738
▁History	-7739
介质	-7740
gers	-7741
句话	-7742
密切	-7743
▁stated	-7744
一行	-7745
▁motor	-7746
人气	-7747
avirus	-7748
▁changing	-7749
▁kick	-7750
出售	-7751
博物	-7752
obe	-7753
▁End	-7754
▁earth	-7755
动漫	-7756
▁meant	-7757
OD	-7758
mond	-7759
▁adjust	-7760
结婚	-7761
发布时间	-7762
▁plays	-7763
▁identified	-7764
利率	-7765
▁units	-7766
▁Clin	-7767
前来	-7768
Ed	-7769
反复	-7770
返回	-7771
▁candidates	-7772
巨大的	-7773
当前位置	-7774
一张	-7775
ait	-7776
深圳市	-7777
▁Sand	-7778
▁launched	-7779
主管	-7780
▁administration	-7781
麻烦	-7782
▁bul	-7783
而成	-7784
ultural	-7785
elcome	-7786
▁larger	-7787
大于	-7788
政治	-7789
iat	-7790
患者的	-7791
▁council	-7792
关卡	-7793
女儿	-7794
▁lock	-7795
绝缘	-7796
▁gather	-7797
▁requires	-7798
失败	-7799
零件	-7800
为一体	-7801
▁adapt	-7802
▁experts	-7803
这两	-7804
acks	-7805
▁secure	-7806
予以	-7807
读书	-7808
不开	-7809
自身的	-7810
不但	-7811
控股	-7812
▁Den	-7813
▁近日	-7814
等相关	-7815
▁mist	-7816
Mon	-7817
▁keeping	-7818
的基础上	-7819
▁Stat	-7820
连锁	-7821
事务	-7822
是以	-7823
▁knows	-7824
通用	-7825
▁Str	-7826
户型	-7827
antic	-7828
orter	-7829
▁Const	-7830
▁stre	-7831
转让	-7832
▁marketing	-7833
我院	-7834
▁multi	-7835
▁cheese	-7836
简约	-7837
▁approved	-7838
Any	-7839
告知	-7840
人力资源	-7841
▁Cam	-7842
▁Use	-7843
湿度	-7844
▁Master	-7845
▁prepare	-7846
广东省	-7847
参加了	-7848
▁shut	-7849
▁encourage	-7850
no	-7851
聚焦	-7852
进展	-7853
▁Ve	-7854
▁Walk	-7855
▁devices	-7856
pected	-7857
west	-7858
▁clinical	-7859
便于	-7860
荣获	-7861
▁Frank	-7862
▁decisions	-7863
CS	-7864
点评	-7865
标识	-7866
之下	-7867
▁asking	-7868
▁described	-7869
财政	-7870
三角	-7871
级的	-7872
html	-7873
传动	-7874
riage	-7875
长度	-7876
▁beach	-7877
那样	-7878
osure	-7879
▁Enter	-7880
▁Indust	-7881
击败	-7882
▁pray	-7883
bo	-7884
浪费	-7885
管控	-7886
高等	-7887
road	-7888
▁hearing	-7889
趣味	-7890
重复	-7891
▁visual	-7892
▁reality	-7893
附件	-7894
Ind	-7895
▁Tur	-7896
明天	-7897
▁rise	-7898
年代	-7899
▁RE	-7900
▁easier	-7901
onavirus	-7902
▁temperature	-7903
布置	-7904
合理的	-7905
感受到	-7906
▁numerous	-7907
ibilities	-7908
▁flu	-7909
▁incor	-7910
各自	-7911
纠纷	-7912
mes	-7913
cean	-7914
▁coffee	-7915
kg	-7916
iency	-7917
义务	-7918
小心	-7919
内外	-7920
▁Jud	-7921
▁coast	-7922
▁foreign	-7923
▁markets	-7924
▁protection	-7925
▁Lat	-7926
▁dyn	-7927
就不	-7928
活力	-7929
ello	-7930
▁Long	-7931
CR	-7932
▁truth	-7933
▁audience	-7934
▁arrang	-7935
十足	-7936
▁Support	-7937
和国	-7938
▁Who	-7939
技术支持	-7940
▁adults	-7941
▁breat	-7942
iPhone	-7943
▁shape	-7944
▁extremely	-7945
▁Sar	-7946
发育	-7947
问题的	-7948
▁fear	-7949
date	-7950
频道	-7951
▁Date	-7952
分数	-7953
▁core	-7954
person	-7955
携带	-7956
Pol	-7957
▁aren	-7958
ograp	-7959
住房	-7960
遵守	-7961
理财	-7962
▁wear	-7963
微信公众号	-7964
阀门	-7965
See	-7966
▁repe	-7967
等多	-7968
lete	-7969
十二	-7970
▁Prem	-7971
▁sand	-7972
▁happens	-7973
▁profile	-7974
涵盖	-7975
才会	-7976
▁planned	-7977
▁celebrate	-7978
精英	-7979
和服务	-7980
▁county	-7981
医师	-7982
结束后	-7983
letter	-7984
回应	-7985
▁Way	-7986
▁Jones	-7987
;-	-7988
▁Oper	-7989
▁comfortable	-7990
已有	-7991
公安局	-7992
▁Tre	-7993
CE	-7994
▁NY	-7995
的应用	-7996
igital	-7997
▁lovely	-7998
▁thr	-7999
▁gain	-8000
▁powerful	-8001
▁Mike	-8002
▁shooting	-8003
不仅仅	-8004
edom	-8005
假期	-8006
ifying	-8007
ribe	-8008
▁uns	-8009
▁depart	-8010
ye	-8011
聊天	-8012
▁Apple	-8013
开展了	-8014
▁commitment	-8015
贯彻	-8016
▁operation	-8017
▁highlight	-8018
IR	-8019
途径	-8020
▁injuries	-8021
♀♀	-8022
总裁	-8023
▁Back	-8024
扶贫	-8025
▁taste	-8026
面板	-8027
甲醛	-8028
▁filled	-8029
花园	-8030
▁buildings	-8031
ba	-8032
玉米	-8033
发布的	-8034
▁Fort	-8035
▁crisis	-8036
▁button	-8037
]].	-8038
▁participate	-8039
演练	-8040
西班	-8041
▁presence	-8042
人为	-8043
道具	-8044
▁Dev	-8045
▁Mat	-8046
企業	-8047
▁league	-8048
静电	-8049
Rel	-8050
▁Williams	-8051
板材	-8052
▁lunch	-8053
▁photograph	-8054
专科	-8055
在家	-8056
巨大	-8057
王者	-8058
▁?	-8059
▁jump	-8060
血管	-8061
ager	-8062
从业	-8063
eria	-8064
po	-8065
克斯	-8066
客场	-8067
西班牙	-8068
ideo	-8069
oston	-8070
真是	-8071
appy	-8072
▁bask	-8073
▁advantage	-8074
得分	-8075
▁claims	-8076
▁visitors	-8077
emporary	-8078
升降	-8079
轨道	-8080
craft	-8081
related	-8082
otten	-8083
之路	-8084
▁List	-8085
的就是	-8086
▁affected	-8087
赶紧	-8088
较低	-8089
燃气	-8090
Pre	-8091
▁readers	-8092
吉林	-8093
短信	-8094
和其他	-8095
▁fif	-8096
EE	-8097
的关键	-8098
▁actions	-8099
发电	-8100
大陆	-8101
平稳	-8102
我想	-8103
龙头	-8104
原作者	-8105
rical	-8106
▁brown	-8107
詹姆斯	-8108
这也	-8109
图像	-8110
频率	-8111
ician	-8112
▁Prov	-8113
Reg	-8114
▁videos	-8115
社保	-8116
开店	-8117
方的	-8118
▁Once	-8119
蒸汽	-8120
▁breakfast	-8121
昨天	-8122
▁USA	-8123
▁crowd	-8124
▁decor	-8125
▁toward	-8126
▁committee	-8127
▁Find	-8128
▁contains	-8129
去除	-8130
▁Human	-8131
促销	-8132
出生	-8133
接着	-8134
▁Jun	-8135
转移	-8136
▁Jim	-8137
▁neighborhood	-8138
▁Sports	-8139
养成	-8140
委托	-8141
直到	-8142
了解更多	-8143
▁disp	-8144
优异	-8145
信赖	-8146
▁ju	-8147
▁Market	-8148
▁transform	-8149
舞蹈	-8150
outs	-8151
▁Organ	-8152
▁cells	-8153
只需要	-8154
▁Gar	-8155
▁rich	-8156
出处	-8157
▁Angeles	-8158
实习	-8159
的机会	-8160
▁pair	-8161
究竟	-8162
▁favour	-8163
权威	-8164
▁talks	-8165
▁editor	-8166
电子商务	-8167
▁Gra	-8168
▁Georg	-8169
▁limit	-8170
传输	-8171
机动车	-8172
othing	-8173
▁Niger	-8174
山区	-8175
客厅	-8176
▁harm	-8177
▁Martin	-8178
还将	-8179
▁conducted	-8180
上市公司	-8181
▁Earth	-8182
▁Richard	-8183
等你	-8184
超越	-8185
贫困	-8186
▁flav	-8187
▁panel	-8188
同一	-8189
校区	-8190
aren	-8191
儿子	-8192
▁guest	-8193
▁delivered	-8194
管理局	-8195
▁policies	-8196
)||	-8197
▁Def	-8198
▁Jew	-8199
▁Canad	-8200
▁spl	-8201
该公司	-8202
解锁	-8203
带有	-8204
▁pepper	-8205
ilit	-8206
供给	-8207
热点	-8208
▁Best	-8209
fortunately	-8210
我司	-8211
▁trial	-8212
▁attended	-8213
▁remaining	-8214
Am	-8215
日在	-8216
▁charged	-8217
一对	-8218
相结合	-8219
▁rap	-8220
▁evalu	-8221
主演	-8222
关于我们	-8223
点赞	-8224
with	-8225
导演	-8226
高铁	-8227
北京时间	-8228
食品安全	-8229
▁sympt	-8230
情感	-8231
数控	-8232
这部	-8233
▁lived	-8234
▁supported	-8235
完成了	-8236
aduate	-8237
▁battle	-8238
分配	-8239
是中国	-8240
类型的	-8241
设有	-8242
蓝色	-8243
▁rat	-8244
ria	-8245
▁apartment	-8246
ario	-8247
▁bright	-8248
▁confirm	-8249
▁elements	-8250
烘干	-8251
Man	-8252
是对	-8253
▁citizens	-8254
协同	-8255
Other	-8256
科普	-8257
车身	-8258
为您提供	-8259
▁facing	-8260
】【	-8261
▁Jo	-8262
▁OF	-8263
▁selection	-8264
发货	-8265
ius	-8266
▁ongoing	-8267
日的	-8268
▁Sher	-8269
istant	-8270
仓库	-8271
▁flex	-8272
美味	-8273
▁smart	-8274
zen	-8275
otal	-8276
大家的	-8277
▁conversation	-8278
顾问	-8279
不住	-8280
留下	-8281
高品质	-8282
▁quiet	-8283
不停	-8284
▁Global	-8285
▁wouldn	-8286
acement	-8287
▁bur	-8288
耐心	-8289
预警	-8290
东北	-8291
▁har	-8292
▁thousands	-8293
▁efficient	-8294
一批	-8295
▁stars	-8296
性格	-8297
yth	-8298
isco	-8299
isters	-8300
星期	-8301
▁arrived	-8302
▁swim	-8303
▁leads	-8304
AB	-8305
▁fields	-8306
地理	-8307
▁Aff	-8308
iliar	-8309
▁calling	-8310
规律	-8311
Can	-8312
▁indic	-8313
▁instru	-8314
利亚	-8315
场上	-8316
▁中	-8317
工人	-8318
kin	-8319
rehensive	-8320
玩具	-8321
▁About	-8322
二级	-8323
均为	-8324
类的	-8325
出现在	-8326
▁emp	-8327
anish	-8328
▁Call	-8329
▁According	-8330
而不	-8331
col	-8332
脂肪	-8333
▁Jeff	-8334
▁parties	-8335
缺点	-8336
azz	-8337
▁Spring	-8338
▁camera	-8339
uration	-8340
設備	-8341
履行	-8342
Why	-8343
▁Nav	-8344
▁milk	-8345
就需要	-8346
▁noted	-8347
上班	-8348
主播	-8349
▁writer	-8350
汇报	-8351
▁candidate	-8352
仅仅	-8353
早期	-8354
▁Cath	-8355
▁crim	-8356
▁Energy	-8357
为准	-8358
▁authorities	-8359
团结	-8360
▁bag	-8361
▁Card	-8362
PI	-8363
年轻人	-8364
同意	-8365
cher	-8366
▁Charl	-8367
RS	-8368
占比	-8369
▁radio	-8370
电视剧	-8371
resp	-8372
欢乐	-8373
▁hy	-8374
▁Scot	-8375
▁cities	-8376
同期	-8377
ployment	-8378
消化	-8379
车站	-8380
减速	-8381
待遇	-8382
▁guys	-8383
▁graph	-8384
广播	-8385
▁debut	-8386
战争	-8387
▁Ohio	-8388
大连	-8389
▁Germany	-8390
▁infrastructure	-8391
省级	-8392
立体	-8393
精细	-8394
▁TO	-8395
▁Wild	-8396
毫米	-8397
博物馆	-8398
▁notes	-8399
PD	-8400
inar	-8401
▁Anal	-8402
▁oven	-8403
▁Econom	-8404
拨打	-8405
净利润	-8406
材料的	-8407
地的	-8408
学期	-8409
获悉	-8410
生产厂家	-8411
培育	-8412
活动中	-8413
▁alleged	-8414
评选	-8415
log	-8416
erg	-8417
▁ir	-8418
istance	-8419
▁begins	-8420
供电	-8421
能否	-8422
▁McC	-8423
▁missed	-8424
替代	-8425
roy	-8426
▁dish	-8427
▁retail	-8428
辐射	-8429
敌人	-8430
▁consid	-8431
成年	-8432
接到	-8433
散热	-8434
▁connected	-8435
著名	-8436
▁cro	-8437
官方网站	-8438
▁crew	-8439
▁Russian	-8440
▁becomes	-8441
▁Fre	-8442
年底	-8443
激发	-8444
飞机	-8445
enced	-8446
▁occup	-8447
▁stick	-8448
▁bringing	-8449
最多	-8450
▁Fair	-8451
▁Although	-8452
▁shel	-8453
站在	-8454
纪念	-8455
▁feedback	-8456
ua	-8457
生涯	-8458
▁maintenance	-8459
交通安全	-8460
under	-8461
所以在	-8462
的管理	-8463
▁Lim	-8464
▁Bo	-8465
▁joy	-8466
icians	-8467
▁detect	-8468
全民	-8469
看出	-8470
▁Western	-8471
▁aspects	-8472
外的	-8473
lymp	-8474
▁internet	-8475
镜头	-8476
▁ment	-8477
▁helpful	-8478
▁bathroom	-8479
▁locations	-8480
延续	-8481
礼品	-8482
门口	-8483
损伤	-8484
▁cooking	-8485
指定	-8486
浓度	-8487
uke	-8488
ading	-8489
▁balance	-8490
▁Australian	-8491
td	-8492
多人	-8493
分别为	-8494
▁Executive	-8495
的品牌	-8496
▁illust	-8497
ushed	-8498
本公司	-8499
玩家们	-8500
▁Adv	-8501
Every	-8502
睡眠	-8503
走向	-8504
▁birthday	-8505
依靠	-8506
orry	-8507
▁Joe	-8508
▁labor	-8509
不太	-8510
的小伙伴	-8511
▁champions	-8512
师范	-8513
理由	-8514
磨损	-8515
太阳能	-8516
▁Penn	-8517
佩戴	-8518
▁Cov	-8519
▁Carolina	-8520
的形式	-8521
▁ath	-8522
▁anti	-8523
▁honor	-8524
▁somew	-8525
期限	-8526
Int	-8527
▁combined	-8528
经销商	-8529
▁graduate	-8530
人人	-8531
无数	-8532
审查	-8533
山东省	-8534
▁theme	-8535
▁obvious	-8536
▁exercise	-8537
助于	-8538
▁Area	-8539
重的	-8540
▁Lee	-8541
▁Stand	-8542
作战	-8543
Col	-8544
▁Whe	-8545
NG	-8546
沈阳	-8547
▁Squ	-8548
▁apart	-8549
▁mixture	-8550
减肥	-8551
hand	-8552
▁scale	-8553
▁format	-8554
rics	-8555
▁employee	-8556
******	-8557
▁storm	-8558
ias	-8559
实际情况	-8560
▁ideal	-8561
▁corporate	-8562
▁Trust	-8563
▁behavior	-8564
出席	-8565
出色	-8566
奋斗	-8567
旅客	-8568
▁Color	-8569
主流	-8570
agement	-8571
三星	-8572
站式	-8573
类别	-8574
▁vehicles	-8575
某些	-8576
开发区	-8577
▁putting	-8578
arsh	-8579
▁kid	-8580
▁sessions	-8581
板的	-8582
因而	-8583
是可以	-8584
imens	-8585
男人	-8586
会出现	-8587
消费者的	-8588
▁Federal	-8589
▁inspired	-8590
他人	-8591
发言	-8592
embly	-8593
itage	-8594
▁surgery	-8595
ato	-8596
框架	-8597
仅供参考	-8598
▁detail	-8599
▁cars	-8600
十大	-8601
Most	-8602
Over	-8603
eration	-8604
一段时间	-8605
三种	-8606
今后	-8607
受伤	-8608
日晚	-8609
▁nav	-8610
▁mill	-8611
▁detailed	-8612
最为	-8613
▁flat	-8614
▁meetings	-8615
服務	-8616
派出所	-8617
▁Place	-8618
必要的	-8619
▁furn	-8620
etball	-8621
专注于	-8622
▁Step	-8623
▁guess	-8624
宁波	-8625
▁holding	-8626
样子	-8627
科目	-8628
动的	-8629
曼联	-8630
标准化	-8631
▁Dou	-8632
▁Make	-8633
astern	-8634
▁commission	-8635
真的是	-8636
▁mostly	-8637
▁exchange	-8638
还需要	-8639
ogue	-8640
▁advis	-8641
口腔	-8642
机遇	-8643
那就是	-8644
▁Tri	-8645
▁spons	-8646
▁tomorrow	-8647
▁strategies	-8648
线条	-8649
top	-8650
▁Virginia	-8651
▁regional	-8652
▁appointment	-8653
不在	-8654
要想	-8655
心情	-8656
新华	-8657
▁perhaps	-8658
主义	-8659
打破	-8660
欣赏	-8661
Fi	-8662
aks	-8663
的基本	-8664
▁caught	-8665
LO	-8666
小于	-8667
病人	-8668
FA	-8669
▁PC	-8670
▁generation	-8671
非法	-8672
▁Jon	-8673
春季	-8674
身材	-8675
转变	-8676
饮料	-8677
**,	-8678
▁conven	-8679
姐姐	-8680
▁wine	-8681
正确的	-8682
▁gift	-8683
勇士	-8684
▁Commun	-8685
一级	-8686
好好	-8687
那种	-8688
不管是	-8689
▁forget	-8690
▁degrees	-8691
活跃	-8692
班级	-8693
▁ship	-8694
侵犯	-8695
好处	-8696
生產	-8697
▁dance	-8698
五金	-8699
信誉	-8700
市政	-8701
百姓	-8702
▁Ma	-8703
▁Bob	-8704
放松	-8705
不出	-8706
演出	-8707
秩序	-8708
间的	-8709
是我们	-8710
决策	-8711
陆续	-8712
▁agree	-8713
▁Series	-8714
师傅	-8715
och	-8716
list	-8717
▁joint	-8718
▁payment	-8719
深化	-8720
但在	-8721
墙面	-8722
▁Lab	-8723
▁Young	-8724
▁sport	-8725
切换	-8726
技術	-8727
▁util	-8728
复制	-8729
osen	-8730
perty	-8731
urban	-8732
▁draft	-8733
东南	-8734
eper	-8735
▁Mur	-8736
▁coverage	-8737
跟踪	-8738
受欢迎	-8739
cont	-8740
▁Bas	-8741
信用卡	-8742
▁advanced	-8743
复工	-8744
adium	-8745
回来	-8746
va	-8747
作出	-8748
圆满	-8749
服务的	-8750
▁Ari	-8751
▁tow	-8752
▁mentioned	-8753
▁Haw	-8754
▁Ken	-8755
权利	-8756
;?#	-8757
等多种	-8758
对阵	-8759
本周	-8760
要有	-8761
▁tun	-8762
reland	-8763
▁motiv	-8764
\*	-8765
配资	-8766
▁Michigan	-8767
Follow	-8768
▁Chair	-8769
▁presentation	-8770
▁EU	-8771
▁Royal	-8772
▁Mot	-8773
▁bread	-8774
▁failed	-8775
▁winner	-8776
▁Pac	-8777
▁flight	-8778
▁resource	-8779
▁Kore	-8780
▁majority	-8781
▁ingredients	-8782
付款	-8783
西部	-8784
▁internal	-8785
Pr	-8786
bur	-8787
会的	-8788
承受	-8789
诸多	-8790
***	-8791
达到了	-8792
gend	-8793
不想	-8794
乙烯	-8795
差距	-8796
▁expertise	-8797
DI	-8798
扎实	-8799
▁upgr	-8800
▁willing	-8801
▁Test	-8802
卓越	-8803
细致	-8804
非常好	-8805
cks	-8806
ression	-8807
Hz	-8808
家族	-8809
英超	-8810
▁dining	-8811
▁shopping	-8812
手工	-8813
▁Ok	-8814
一起来	-8815
▁administr	-8816
过于	-8817
owntown	-8818
家电	-8819
▁dogs	-8820
▁flour	-8821
▁spokes	-8822
utely	-8823
▁Have	-8824
▁square	-8825
有时	-8826
▁edition	-8827
传媒	-8828
抓住	-8829
▁Mer	-8830
口感	-8831
好像	-8832
平面	-8833
sen	-8834
为用户	-8835
▁Saf	-8836
▁visiting	-8837
▁teach	-8838
point	-8839
atically	-8840
▁tele	-8841
lights	-8842
▁Boston	-8843
灯光	-8844
电动车	-8845
▁mur	-8846
了解一下	-8847
守护	-8848
较高的	-8849
how	-8850
▁Students	-8851
弹性	-8852
Join	-8853
orters	-8854
新时代	-8855
edia	-8856
iration	-8857
▁Victor	-8858
▁promote	-8859
▁discovered	-8860
不然	-8861
Mar	-8862
cle	-8863
▁prison	-8864
夜间	-8865
每一位	-8866
▁amb	-8867
▁bond	-8868
房产	-8869
▁Andrew	-8870
储存	-8871
▁magn	-8872
宝贝	-8873
研讨	-8874
arks	-8875
体积	-8876
▁Cross	-8877
▁Their	-8878
▁classic	-8879
扮演	-8880
oration	-8881
有时候	-8882
▁mail	-8883
读者	-8884
▁Log	-8885
pet	-8886
▁therefore	-8887
来进行	-8888
的目的	-8889
anchester	-8890
▁reference	-8891
▁年	-8892
地球	-8893
鸡蛋	-8894
ansas	-8895
一起来看看	-8896
▁accompl	-8897
▁Coast	-8898
▁Olymp	-8899
冠状	-8900
secut	-8901
▁technologies	-8902
▁employment	-8903
变压	-8904
产业链	-8905
inct	-8906
rolled	-8907
Lear	-8908
▁confidence	-8909
▁anc	-8910
月的	-8911
▁sides	-8912
能在	-8913
Contact	-8914
本网站	-8915
▁quant	-8916
aration	-8917
巴萨	-8918
柴油	-8919
▁tough	-8920
主机	-8921
桥梁	-8922
▁Game	-8923
▁studio	-8924
▁forg	-8925
的优势	-8926
▁fat	-8927
可以选择	-8928
lies	-8929
的首	-8930
▁Ell	-8931
orough	-8932
来讲	-8933
PG	-8934
▁eating	-8935
要是	-8936
的学习	-8937
▁Jackson	-8938
优雅	-8939
基因	-8940
▁Id	-8941
aked	-8942
▁Engineering	-8943
▁Aud	-8944
纪录	-8945
ocolate	-8946
Us	-8947
原本	-8948
探讨	-8949
气氛	-8950
▁cerem	-8951
Mr	-8952
▁conv	-8953
▁grade	-8954
货架	-8955
▁flowers	-8956
bu	-8957
esome	-8958
轮胎	-8959
aded	-8960
▁slightly	-8961
它是	-8962
▁diverse	-8963
’,	-8964
询问	-8965
聚集	-8966
▁bought	-8967
▁distribution	-8968
hire	-8969
激情	-8970
力和	-8971
国庆	-8972
话题	-8973
货币	-8974
oted	-8975
▁tests	-8976
进程	-8977
▁earned	-8978
产物	-8979
▁predict	-8980
▁metal	-8981
▁forces	-8982
敬请	-8983
SUV	-8984
▁otherwise	-8985
舒服	-8986
▁ang	-8987
TH	-8988
我们会	-8989
税务	-8990
▁lose	-8991
▁positions	-8992
心中	-8993
款式	-8994
ocated	-8995
▁researchers	-8996
▁loan	-8997
并非	-8998
各种各	-8999
Comm	-9000
▁tack	-9001
站点	-9002
▁feels	-9003
转载请	-9004
phas	-9005
▁exclus	-9006
▁forest	-9007
▁collaboration	-9008
机组	-9009
潮流	-9010
▁nearby	-9011
一扫	-9012
real	-9013
▁nurs	-9014
▁Connect	-9015
男篮	-9016
面前	-9017
以便	-9018
aylor	-9019
▁minimum	-9020
!)	-9021
亮相	-9022
亲子	-9023
▁impl	-9024
▁sequ	-9025
▁industrial	-9026
▁island	-9027
上海市	-9028
拍照	-9029
短视频	-9030
enses	-9031
▁Obama	-9032
老化	-9033
调试	-9034
poration	-9035
称号	-9036
的表现	-9037
Just	-9038
▁Russia	-9039
▁submit	-9040
MM	-9041
造成的	-9042
▁arts	-9043
ban	-9044
rum	-9045
▁films	-9046
▁influence	-9047
▁introduced	-9048
给人	-9049
队友	-9050
azon	-9051
▁Type	-9052
开业	-9053
考研	-9054
▁Middle	-9055
▁partnership	-9056
通行	-9057
▁workshop	-9058
▁wedding	-9059
▁mort	-9060
----------------	-9061
一件	-9062
养生	-9063
初步	-9064
ICP	-9065
我们要	-9066
ella	-9067
▁smooth	-9068
食材	-9069
▁ven	-9070
▁Party	-9071
▁television	-9072
提取	-9073
▁practical	-9074
CD	-9075
▁Microsoft	-9076
UL	-9077
共和国	-9078
free	-9079
ien	-9080
odies	-9081
暂时	-9082
机床	-9083
气的	-9084
▁Division	-9085
arly	-9086
endar	-9087
▁Mexico	-9088
Pe	-9089
什么是	-9090
▁injured	-9091
▁大	-9092
▁fee	-9093
Im	-9094
天猫	-9095
头条	-9096
▁female	-9097
▁organis	-9098
业内	-9099
reprene	-9100
▁cooper	-9101
▁healthcare	-9102
浪漫	-9103
▁valid	-9104
完美的	-9105
除尘器	-9106
▁Light	-9107
▁regul	-9108
▁carried	-9109
▁fantastic	-9110
天天	-9111
▁中国	-9112
详细的	-9113
并对	-9114
uable	-9115
cos	-9116
▁confident	-9117
▁Mid	-9118
oz	-9119
的事	-9120
mary	-9121
▁Coll	-9122
厂房	-9123
机电	-9124
考虑到	-9125
团体	-9126
气候	-9127
ducing	-9128
▁invited	-9129
▁registration	-9130
。”“	-9131
两次	-9132
公斤	-9133
养护	-9134
神秘	-9135
化妆品	-9136
的过程	-9137
▁ran	-9138
图书馆	-9139
▁Wal	-9140
齿轮	-9141
ATION	-9142
占据	-9143
月底	-9144
▁sitting	-9145
▁Uk	-9146
▁renew	-9147
▁forced	-9148
昆明	-9149
目录	-9150
eries	-9151
▁Italian	-9152
最新的	-9153
▁Far	-9154
▁defense	-9155
为主题	-9156
垂直	-9157
认定	-9158
▁Ash	-9159
求职	-9160
▁来源	-9161
oost	-9162
rance	-9163
▁afford	-9164
▁festival	-9165
▁symptoms	-9166
▁historical	-9167
▁crash	-9168
▁database	-9169
现状	-9170
竟然	-9171
于一体	-9172
▁cards	-9173
▁agreed	-9174
课题	-9175
Since	-9176
water	-9177
▁surrounding	-9178
任意	-9179
看了	-9180
ava	-9181
oir	-9182
渗透	-9183
▁Ministry	-9184
▁decide	-9185
▁protected	-9186
初中	-9187
获奖	-9188
▁recovery	-9189
▁honest	-9190
▁secret	-9191
TR	-9192
VR	-9193
格栅	-9194
一直在	-9195
开工	-9196
▁applied	-9197
▁fuel	-9198
蒙古	-9199
uties	-9200
格局	-9201
容器	-9202
完善的	-9203
血液	-9204
螺旋	-9205
.[[	-9206
▁Creat	-9207
▁conflic	-9208
▁server	-9209
飞行	-9210
▁wire	-9211
家庄	-9212
尼斯	-9213
钢铁	-9214
holders	-9215
▁provider	-9216
ta	-9217
解析	-9218
▁actual	-9219
后台	-9220
洗衣	-9221
给我	-9222
编制	-9223
▁innovative	-9224
估计	-9225
高速公路	-9226
)(	-9227
but	-9228
▁holds	-9229
▁route	-9230
▁generally	-9231
军事	-9232
流通	-9233
常常	-9234
肿瘤	-9235
▁ourselves	-9236
▁fra	-9237
交换	-9238
可达	-9239
头发	-9240
战胜	-9241
otes	-9242
▁edge	-9243
一片	-9244
平米	-9245
上半年	-9246
的东西	-9247
▁meat	-9248
▁»	-9249
石材	-9250
ORE	-9251
tered	-9252
▁Cast	-9253
江苏省	-9254
prise	-9255
▁Senior	-9256
投放	-9257
ads	-9258
可根据	-9259
▁concent	-9260
的经营	-9261
▁agencies	-9262
▁flood	-9263
Are	-9264
除此	-9265
许可证	-9266
流畅	-9267
人员的	-9268
消防安全	-9269
事业单位	-9270
▁Medicine	-9271
必然	-9272
联动	-9273
大家都	-9274
▁Wall	-9275
▁crime	-9276
▁delight	-9277
▁smaller	-9278
生成	-9279
这一点	-9280
look	-9281
▁witness	-9282
▁negative	-9283
▁Environment	-9284
Today	-9285
▁bless	-9286
▁removed	-9287
▁featured	-9288
▁determined	-9289
▁comprehensive	-9290
尊重	-9291
备考	-9292
淘汰	-9293
Find	-9294
礼包	-9295
起重	-9296
▁explained	-9297
▁optim	-9298
来电	-9299
充值	-9300
▁inn	-9301
▁ride	-9302
中药	-9303
攻坚	-9304
更大	-9305
”)	-9306
多云	-9307
幸运	-9308
rier	-9309
▁Hotel	-9310
▁manufacture	-9311
样品	-9312
ifts	-9313
▁Follow	-9314
股价	-9315
▁Daniel	-9316
▁Er	-9317
Book	-9318
▁Rev	-9319
▁error	-9320
用心	-9321
▁Mic	-9322
▁guy	-9323
▁sets	-9324
延伸	-9325
工作室	-9326
▁Ireland	-9327
▁interests	-9328
教研	-9329
▁animal	-9330
无疑	-9331
law	-9332
News	-9333
种子	-9334
精选	-9335
爆发	-9336
加盟店	-9337
▁row	-9338
为客户提供	-9339
profit	-9340
▁tend	-9341
▁handle	-9342
▁whatever	-9343
引入	-9344
交付	-9345
yard	-9346
将继续	-9347
▁bra	-9348
▁analy	-9349
▁painting	-9350
变更	-9351
我們	-9352
路面	-9353
楼盘	-9354
人们的	-9355
十一	-9356
斯特	-9357
▁elig	-9358
▁featuring	-9359
明显的	-9360
数据显示	-9361
有一定的	-9362
▁Full	-9363
GO	-9364
▁Boy	-9365
igration	-9366
▁opinion	-9367
效应	-9368
以往	-9369
很少	-9370
教材	-9371
波动	-9372
Let	-9373
航天	-9374
Check	-9375
▁Columb	-9376
城乡	-9377
▁Take	-9378
▁category	-9379
反弹	-9380
变速	-9381
扩展	-9382
简洁	-9383
一套	-9384
▁throw	-9385
日电	-9386
路段	-9387
逻辑	-9388
orld	-9389
持有	-9390
冠状病毒	-9391
ublished	-9392
内饰	-9393
新品	-9394
格式	-9395
制造业	-9396
▁reporting	-9397
战士	-9398
coh	-9399
较大的	-9400
▁Govern	-9401
听到	-9402
有害	-9403
ora	-9404
▁coordin	-9405
当下	-9406
耐用	-9407
acious	-9408
▁virtual	-9409
英文	-9410
EST	-9411
▁Tour	-9412
▁resol	-9413
▁retire	-9414
ench	-9415
▁Inte	-9416
Posted	-9417
▁package	-9418
▁awareness	-9419
本来	-9420
▁Pay	-9421
▁Word	-9422
物联网	-9423
omet	-9424
pass	-9425
▁signs	-9426
▁context	-9427
青睐	-9428
完毕	-9429
▁Georgia	-9430
▁sex	-9431
▁beauty	-9432
火爆	-9433
tw	-9434
损害	-9435
▁Max	-9436
要素	-9437
lementary	-9438
满满	-9439
▁follows	-9440
▁Canadian	-9441
网站建设	-9442
歌曲	-9443
玩的	-9444
▁musical	-9445
elligence	-9446
下滑	-9447
een	-9448
aming	-9449
▁meal	-9450
taining	-9451
▁museum	-9452
副本	-9453
Spe	-9454
影片	-9455
▁seconds	-9456
▁•	-9457
一周	-9458
欧冠	-9459
▁TH	-9460
▁implementation	-9461
▁pil	-9462
▁volunteers	-9463
▁discip	-9464
镀锌	-9465
运动员	-9466
athan	-9467
▁directed	-9468
▁combination	-9469
借助	-9470
器械	-9471
▁Pak	-9472
▁boys	-9473
▁restaurants	-9474
BO	-9475
婴儿	-9476
笔记	-9477
▁cy	-9478
▁Awards	-9479
MT	-9480
交叉	-9481
接待	-9482
油烟	-9483
是否有	-9484
▁subscrib	-9485
▁violence	-9486
ja	-9487
ancer	-9488
▁weekly	-9489
温馨提示	-9490
头的	-9491
授课	-9492
▁Night	-9493
余人	-9494
摩擦	-9495
Go	-9496
冬天	-9497
paper	-9498
▁tournament	-9499
地上	-9500
污水处理	-9501
▁Like	-9502
不久	-9503
直径	-9504
▁argu	-9505
另一方面	-9506
玻璃钢	-9507
▁sounds	-9508
▁)	-9509
举措	-9510
粉碎	-9511
再加上	-9512
▁prin	-9513
▁Start	-9514
Fe	-9515
▁spaces	-9516
纺织	-9517
oti	-9518
没想到	-9519
警方	-9520
有望	-9521
opp	-9522
祖国	-9523
irms	-9524
老年人	-9525
▁outdoor	-9526
▁guidance	-9527
Top	-9528
ups	-9529
内容的	-9530
引起的	-9531
长江	-9532
龙江	-9533
▁Phot	-9534
▁accepted	-9535
▁bedrooms	-9536
▁receiving	-9537
Disc	-9538
试点	-9539
▁Ut	-9540
要求的	-9541
▁Prote	-9542
接种	-9543
解读	-9544
▁fashion	-9545
礼物	-9546
地区的	-9547
▁Bal	-9548
核酸检测	-9549
真实性	-9550
▁scholars	-9551
遭遇	-9552
的精神	-9553
▁desk	-9554
bi	-9555
开设	-9556
多功能	-9557
▁mel	-9558
▁perman	-9559
▁decades	-9560
不大	-9561
朋友圈	-9562
白天	-9563
有可能	-9564
▁Spanish	-9565
婚姻	-9566
能力和	-9567
inem	-9568
▁bound	-9569
件的	-9570
▁waste	-9571
▁enhance	-9572
扫一扫	-9573
ennis	-9574
▁rapid	-9575
▁awarded	-9576
▁sustainable	-9577
外部	-9578
自信	-9579
培训机构	-9580
▁Steve	-9581
iveness	-9582
▁Quest	-9583
▁thick	-9584
▁native	-9585
气息	-9586
進行	-9587
隐藏	-9588
服务平台	-9589
世界上	-9590
oses	-9591
do	-9592
reme	-9593
瓷砖	-9594
Art	-9595
还原	-9596
den	-9597
▁Sign	-9598
▁matters	-9599
▁intended	-9600
▁institutions	-9601
清除	-9602
▁circum	-9603
复印	-9604
iors	-9605
导向	-9606
▁advoc	-9607
的操作	-9608
▁roles	-9609
▁joining	-9610
▁exhibition	-9611
奉献	-9612
美好的	-9613
钢结构	-9614
我要	-9615
西南	-9616
ampion	-9617
▁tells	-9618
▁virus	-9619
bration	-9620
forcement	-9621
区块	-9622
▁AL	-9623
一方面	-9624
▁Qual	-9625
回报	-9626
▁Paris	-9627
补偿	-9628
▁Ce	-9629
elly	-9630
qq	-9631
共计	-9632
入选	-9633
定了	-9634
缴费	-9635
无锡	-9636
aped	-9637
oral	-9638
▁Live	-9639
身体健康	-9640
▁baking	-9641
作文	-9642
随机	-9643
由此	-9644
First	-9645
▁recommended	-9646
▁occasion	-9647
During	-9648
▁Its	-9649
▁discussed	-9650
是比较	-9651
abled	-9652
▁familiar	-9653
典型	-9654
游泳	-9655
章节	-9656
▁compar	-9657
▁channel	-9658
公平	-9659
名为	-9660
给我们	-9661
▁rule	-9662
▁Pract	-9663
▁faculty	-9664
成效	-9665
为企业	-9666
gment	-9667
▁Officer	-9668
▁returns	-9669
▁alternative	-9670
版权归	-9671
嫌疑	-9672
▁Hen	-9673
灭火	-9674
poses	-9675
▁roof	-9676
ersey	-9677
▁batter	-9678
PK	-9679
三国	-9680
的美	-9681
▁rail	-9682
▁soul	-9683
使其	-9684
哈尔	-9685
unting	-9686
反而	-9687
白酒	-9688
▁fold	-9689
▁river	-9690
让您	-9691
verse	-9692
▁picked	-9693
架构	-9694
景点	-9695
及以上	-9696
umin	-9697
▁allowing	-9698
▁eventually	-9699
这个问题	-9700
▁stopped	-9701
光伏	-9702
long	-9703
ults	-9704
▁clearly	-9705
后面	-9706
器材	-9707
的第一	-9708
▁external	-9709
接收	-9710
▁Know	-9711
▁extensive	-9712
mosp	-9713
▁transact	-9714
号线	-9715
▁aid	-9716
少女	-9717
加盟商	-9718
iture	-9719
▁craft	-9720
这时	-9721
CA	-9722
SH	-9723
整形	-9724
个性化	-9725
▁construct	-9726
赛车	-9727
公司在	-9728
▁originally	-9729
厘米	-9730
周末	-9731
四大	-9732
流水	-9733
▁spr	-9734
▁belong	-9735
▁delicious	-9736
公寓	-9737
工会	-9738
ISO	-9739
pat	-9740
▁perspective	-9741
饲料	-9742
▁pleased	-9743
第六	-9744
高峰	-9745
形成了	-9746
的用户	-9747
▁stir	-9748
lywood	-9749
▁improved	-9750
不起	-9751
equ	-9752
口味	-9753
这件	-9754
▁AND	-9755
▁Cook	-9756
▁stret	-9757
▁procedures	-9758
兰州	-9759
▁lit	-9760
▁answers	-9761
▁historic	-9762
沙发	-9763
自助	-9764
▁Pan	-9765
▁Access	-9766
现代化	-9767
充分发挥	-9768
~~	-9769
底部	-9770
的发生	-9771
穿着	-9772
iament	-9773
▁whom	-9774
▁concerned	-9775
互相	-9776
大约	-9777
表情	-9778
发布了	-9779
▁ris	-9780
别的	-9781
是要	-9782
极大	-9783
看见	-9784
▁dates	-9785
▁serves	-9786
新手	-9787
河南省	-9788
▁Manchester	-9789
茶叶	-9790
的故事	-9791
可以根据	-9792
▁Instagram	-9793
▁du	-9794
▁twe	-9795
过了	-9796
▁er	-9797
▁yards	-9798
AY	-9799
产能	-9800
敏感	-9801
硬度	-9802
▁Both	-9803
▁Kent	-9804
海报	-9805
装配	-9806
生态环境	-9807
▁Secretary	-9808
付出	-9809
和平	-9810
缴纳	-9811
▁vul	-9812
书法	-9813
的比赛	-9814
VIP	-9815
重要的是	-9816
供应链	-9817
▁Senate	-9818
更大的	-9819
▁emphas	-9820
▁script	-9821
▁submitted	-9822
零部件	-9823
idden	-9824
▁Financial	-9825
入驻	-9826
素材	-9827
缺陷	-9828
钻石	-9829
▁Gen	-9830
▁continu	-9831
▁assessment	-9832
上方	-9833
之处	-9834
兑换	-9835
icket	-9836
已成为	-9837
▁taught	-9838
收取	-9839
▁steel	-9840
仓储	-9841
▁hero	-9842
▁twice	-9843
巴黎	-9844
▁debt	-9845
▁fellow	-9846
▁challenging	-9847
激励	-9848
▁volume	-9849
乘客	-9850
sea	-9851
为止	-9852
之旅	-9853
英寸	-9854
认知	-9855
uan	-9856
▁Ltd	-9857
上有	-9858
网红	-9859
考验	-9860
靠谱	-9861
▁fruit	-9862
agues	-9863
▁Through	-9864
前后	-9865
顶级	-9866
▁Jr	-9867
▁Applic	-9868
体会	-9869
▁Online	-9870
座椅	-9871
writ	-9872
强势	-9873
Eng	-9874
▁seemed	-9875
▁univers	-9876
▁successfully	-9877
▁Zeal	-9878
▁vary	-9879
▁managing	-9880
建筑面积	-9881
PH	-9882
开户	-9883
▁Cre	-9884
▁sam	-9885
▁teen	-9886
iversary	-9887
▁transition	-9888
我就	-9889
百万	-9890
arp	-9891
▁san	-9892
管理体系	-9893
▁seat	-9894
▁truck	-9895
年夜	-9896
iana	-9897
▁Friend	-9898
Ke	-9899
室外	-9900
▁filed	-9901
分散	-9902
熟练	-9903
用电	-9904
技术人员	-9905
ca	-9906
管理系统	-9907
外形	-9908
姓名	-9909
振兴	-9910
rad	-9911
▁tro	-9912
当年	-9913
▁Kn	-9914
图案	-9915
多彩	-9916
某某	-9917
石家庄	-9918
illy	-9919
发明	-9920
性好	-9921
无缝	-9922
解决了	-9923
Part	-9924
黄色	-9925
有限责任	-9926
▁dial	-9927
▁tight	-9928
▁windows	-9929
▁Daily	-9930
▁stake	-9931
▁scientific	-9932
对话	-9933
粉尘	-9934
边的	-9935
通报	-9936
程度上	-9937
▁doors	-9938
▁phase	-9939
▁Product	-9940
中国的	-9941
▁coronavirus	-9942
外国	-9943
anwhile	-9944
向上	-9945
护肤	-9946
▁Local	-9947
apes	-9948
▁Rest	-9949
▁broken	-9950
常识	-9951
摩托	-9952
▁phil	-9953
▁Ep	-9954
▁Phys	-9955
▁infl	-9956
▁cop	-9957
reens	-9958
受理	-9959
激烈	-9960
hem	-9961
同行	-9962
用了	-9963
▁hyd	-9964
arian	-9965
bury	-9966
▁awards	-9967
▁investors	-9968
以外	-9969
穿越	-9970
一个月	-9971
▁brows	-9972
▁Professor	-9973
为何	-9974
▁IP	-9975
▁Where	-9976
▁chart	-9977
教程	-9978
几种	-9979
还没	-9980
有一些	-9981
指示	-9982
研究所	-9983
utch	-9984
▁Because	-9985
▁extended	-9986
本土	-9987
留学	-9988
▁Fac	-9989
看好	-9990
awn	-9991
▁actor	-9992
▁Account	-9993
▁installed	-9994
不上	-9995
外线	-9996
▁Equ	-9997
流入	-9998
贵的	-9999
▁manufacturing	-10000
同志	-10001
lyn	-10002
战队	-10003
Per	-10004
▁Americans	-10005
燃料	-10006
▁ages	-10007
▁constit	-10008
生日	-10009
路口	-10010
了吗	-10011
那里	-10012
▁pal	-10013
▁Zealand	-10014
▁authors	-10015
凤凰	-10016
就算	-10017
排除	-10018
Also	-10019
▁Expl	-10020
▁explain	-10021
地坪	-10022
早上	-10023
视野	-10024
支付宝	-10025
与此	-10026
可谓	-10027
laim	-10028
▁sad	-10029
HD	-10030
投票	-10031
显然	-10032
细菌	-10033
▁accounts	-10034
▁ol	-10035
...]	-10036
gage	-10037
▁passeng	-10038
ME	-10039
主角	-10040
买卖	-10041
计量	-10042
▁Code	-10043
asters	-10044
民生	-10045
严重的	-10046
▁Hom	-10047
分辨	-10048
事实上	-10049
和社会	-10050
▁liqu	-10051
▁contest	-10052
可能性	-10053
▁purposes	-10054
PU	-10055
各界	-10056
喷涂	-10057
▁household	-10058
再生	-10059
投递	-10060
▁assets	-10061
▁unless	-10062
▁involve	-10063
编号	-10064
ati	-10065
可持续	-10066
▁entered	-10067
▁Gh	-10068
的状态	-10069
Note	-10070
▁minor	-10071
法定	-10072
食堂	-10073
oga	-10074
副主任	-10075
Inst	-10076
▁minister	-10077
▁happening	-10078
tra	-10079
▁forum	-10080
一段	-10081
关节	-10082
相似	-10083
▁delay	-10084
摘要	-10085
首发	-10086
评分	-10087
▁Justice	-10088
全年	-10089
适宜	-10090
▁ped	-10091
系数	-10092
风采	-10093
▁settings	-10094
驾驶员	-10095
一台	-10096
alled	-10097
缩短	-10098
说话	-10099
陪伴	-10100
▁hoping	-10101
▁speech	-10102
打算	-10103
hered	-10104
▁menu	-10105
▁alongside	-10106
实木	-10107
必须要	-10108
在大	-10109
担当	-10110
▁moments	-10111
主人	-10112
John	-10113
同事	-10114
kes	-10115
▁decre	-10116
牙齿	-10117
RI	-10118
’.	-10119
回忆	-10120
毫无	-10121
米兰	-10122
spe	-10123
值得一	-10124
▁depending	-10125
减轻	-10126
运作	-10127
TER	-10128
水利	-10129
面料	-10130
▁Kim	-10131
Related	-10132
▁NC	-10133
Stud	-10134
一般来说	-10135
▁closer	-10136
▁severe	-10137
两位	-10138
主席	-10139
▁garlic	-10140
大家在	-10141
▁Leg	-10142
▁attorney	-10143
扩散	-10144
花费	-10145
受到了	-10146
皇马	-10147
净水	-10148
立足	-10149
▁Ram	-10150
工地	-10151
Rep	-10152
ffect	-10153
▁marriage	-10154
收录	-10155
高层	-10156
可以让	-10157
都需要	-10158
ansion	-10159
▁apparent	-10160
▁Gal	-10161
▁ign	-10162
】:	-10163
诉讼	-10164
金币	-10165
▁cabin	-10166
▁colour	-10167
▁enable	-10168
潜力	-10169
研制	-10170
▁trading	-10171
▁据	-10172
全身	-10173
承载	-10174
排行榜	-10175
▁appreciate	-10176
题目	-10177
▁Wat	-10178
▁arm	-10179
▁covers	-10180
不及	-10181
的光	-10182
说到	-10183
ipl	-10184
木材	-10185
scribe	-10186
▁Second	-10187
水质	-10188
▁unable	-10189
命中	-10190
请联系	-10191
为此	-10192
精确	-10193
▁CH	-10194
的目标	-10195
Gu	-10196
液晶	-10197
等地	-10198
▁die	-10199
season	-10200
半场	-10201
本书	-10202
负荷	-10203
met	-10204
复习	-10205
中华人民	-10206
▁Southern	-10207
▁publication	-10208
▁grew	-10209
unicip	-10210
▁pregn	-10211
▁processing	-10212
局长	-10213
▁thus	-10214
▁Little	-10215
▁powder	-10216
▁Details	-10217
▁treated	-10218
%、	-10219
▁Fed	-10220
rig	-10221
▁Carl	-10222
南方	-10223
▁ends	-10224
▁Charles	-10225
降温	-10226
的公司	-10227
raine	-10228
▁criminal	-10229
▁speaking	-10230
▁absolutely	-10231
巴西	-10232
▁Resp	-10233
▁tradition	-10234
imin	-10235
紧密	-10236
创业者	-10237
危机	-10238
电阻	-10239
一站式	-10240
upp	-10241
▁fle	-10242
▁supports	-10243
退休	-10244
哈哈	-10245
比亚	-10246
能够在	-10247
▁Lin	-10248
itals	-10249
单独	-10250
sey	-10251
ouston	-10252
▁hosted	-10253
▁movies	-10254
这场	-10255
▁Tit	-10256
除此之外	-10257
▁significantly	-10258
OK	-10259
本期	-10260
不容易	-10261
aser	-10262
会长	-10263
发热	-10264
坚决	-10265
成功的	-10266
▁Prime	-10267
▁compli	-10268
乡镇	-10269
Yes	-10270
▁Van	-10271
▁Farm	-10272
Americ	-10273
▁tonight	-10274
有助于	-10275
▁obtained	-10276
创始	-10277
erves	-10278
▁hall	-10279
▁facilit	-10280
也没	-10281
▁weap	-10282
度假	-10283
自觉	-10284
▁Ca	-10285
▁ON	-10286
数据库	-10287
osoph	-10288
▁border	-10289
废水	-10290
开了	-10291
erts	-10292
▁jun	-10293
▁worry	-10294
▁causes	-10295
每周	-10296
▁functions	-10297
BN	-10298
onom	-10299
Comments	-10300
▁dropped	-10301
▁emotional	-10302
▁expressed	-10303
法兰	-10304
▁Join	-10305
ache	-10306
▁unf	-10307
udden	-10308
▁Pakistan	-10309
幅度	-10310
应该是	-10311
.•	-10312
平台的	-10313
fficient	-10314
争取	-10315
叉车	-10316
照顾	-10317
▁corn	-10318
你会	-10319
安全性	-10320
etime	-10321
算法	-10322
长安	-10323
浙江省	-10324
份额	-10325
acc	-10326
▁Asia	-10327
▁pump	-10328
突发	-10329
▁CD	-10330
EV	-10331
常用	-10332
一定会	-10333
学校的	-10334
▁considering	-10335
常态	-10336
今年的	-10337
▁NFL	-10338
ashed	-10339
▁recognized	-10340
can	-10341
|||	-10342
oned	-10343
▁airport	-10344
两侧	-10345
忘记	-10346
▁spoke	-10347
中华人民共和国	-10348
▁landscape	-10349
心态	-10350
acle	-10351
▁Die	-10352
▁Hon	-10353
增值	-10354
esy	-10355
农产品	-10356
icing	-10357
OU	-10358
变压器	-10359
▁Digital	-10360
▁drivers	-10361
隧道	-10362
下来的	-10363
▁reduced	-10364
办学	-10365
▁west	-10366
▁mixed	-10367
ographic	-10368
osit	-10369
▁Luc	-10370
▁Learning	-10371
像素	-10372
均可	-10373
▁Cur	-10374
↓↓	-10375
变频	-10376
▁Northern	-10377
WE	-10378
提升了	-10379
元的	-10380
在了	-10381
奔驰	-10382
钢筋	-10383
而不是	-10384
▁Works	-10385
▁houses	-10386
总监	-10387
披露	-10388
▁Army	-10389
▁revenue	-10390
不妨	-10391
回顾	-10392
威胁	-10393
▁tomat	-10394
超声	-10395
▁Covid	-10396
▁chain	-10397
▁Policy	-10398
有趣的	-10399
消失	-10400
▁fro	-10401
rete	-10402
基础设施	-10403
▁fabric	-10404
商店	-10405
▁ceremony	-10406
玩家可以	-10407
cohol	-10408
▁agent	-10409
尽可能	-10410
ially	-10411
▁Catholic	-10412
彼此	-10413
▁config	-10414
矛盾	-10415
不超过	-10416
频繁	-10417
显示屏	-10418
后果	-10419
Key	-10420
VP	-10421
背后	-10422
▁Learn	-10423
▁guard	-10424
▁domestic	-10425
控制系统	-10426
▁appearance	-10427
内置	-10428
教室	-10429
Step	-10430
mg	-10431
催化	-10432
新建	-10433
aints	-10434
ighter	-10435
▁components	-10436
XX	-10437
luding	-10438
▁atmosp	-10439
入手	-10440
可用	-10441
标准的	-10442
amber	-10443
Direct	-10444
▁wearing	-10445
▁strategic	-10446
zona	-10447
▁boat	-10448
清新	-10449
广泛应用于	-10450
▁maximum	-10451
对待	-10452
▁input	-10453
▁loves	-10454
▁regularly	-10455
▁contribute	-10456
cious	-10457
▁Italy	-10458
涨幅	-10459
发电机	-10460
▁fly	-10461
▁figures	-10462
泡沫	-10463
的原则	-10464
children	-10465
ns	-10466
不变	-10467
看到了	-10468
ulum	-10469
干扰	-10470
热爱	-10471
稳定的	-10472
可以说是	-10473
新型冠状病毒	-10474
场合	-10475
萝卜	-10476
pool	-10477
▁Foot	-10478
▁Summer	-10479
特种	-10480
区块链	-10481
中山	-10482
等方式	-10483
时间内	-10484
▁rid	-10485
▁circumst	-10486
▁innovation	-10487
gs	-10488
西北	-10489
▁Ryan	-10490
吸附	-10491
期望	-10492
安全隐患	-10493
nam	-10494
▁diss	-10495
▁owned	-10496
宿舍	-10497
较多	-10498
道德	-10499
▁chemical	-10500
▁resc	-10501
CL	-10502
早已	-10503
发布会	-10504
▁cart	-10505
一同	-10506
小孩	-10507
日益	-10508
影响力	-10509
网站的	-10510
服务热线	-10511
有限责任公司	-10512
ardens	-10513
▁license	-10514
制造商	-10515
iest	-10516
lets	-10517
▁Garden	-10518
EX	-10519
▁Next	-10520
▁awesome	-10521
▁guidelines	-10522
平板	-10523
率先	-10524
质感	-10525
题材	-10526
最后一	-10527
乘坐	-10528
新闻网	-10529
eler	-10530
————	-10531
脱贫	-10532
▁creation	-10533
Bu	-10534
▁Taylor	-10535
外界	-10536
自考	-10537
配方	-10538
ificate	-10539
▁justice	-10540
▁Job	-10541
▁Hope	-10542
图文	-10543
概率	-10544
eping	-10545
每月	-10546
▁Isl	-10547
ether	-10548
EP	-10549
坚守	-10550
更多信息	-10551
lusion	-10552
▁index	-10553
▁plate	-10554
▁mountain	-10555
疯狂	-10556
▁murder	-10557
▁informed	-10558
基础上	-10559
alks	-10560
搜索引擎	-10561
内心	-10562
▁usual	-10563
▁closely	-10564
当事	-10565
PVC	-10566
orders	-10567
几十	-10568
简直	-10569
設計	-10570
更高的	-10571
▁standing	-10572
乐园	-10573
居家	-10574
语文	-10575
建立了	-10576
▁terror	-10577
▁therapy	-10578
ailability	-10579
审计	-10580
子公司	-10581
嘉宾	-10582
iano	-10583
上课	-10584
▁mine	-10585
旗舰店	-10586
▁Set	-10587
▁Watch	-10588
▁switch	-10589
▁Francisco	-10590
三是	-10591
多数	-10592
拿下	-10593
的全	-10594
▁hopes	-10595
▁plastic	-10596
▁contemporary	-10597
开幕	-10598
▁Rod	-10599
▁CA	-10600
自行车	-10601
▁manner	-10602
孕妇	-10603
破解	-10604
班主任	-10605
的核心	-10606
▁Sus	-10607
工作经验	-10608
堵塞	-10609
系統	-10610
比较好	-10611
性强	-10612
筛选	-10613
pre	-10614
▁Field	-10615
▁greatest	-10616
uting	-10617
▁complic	-10618
▁Pop	-10619
▁Tem	-10620
▁termin	-10621
废气	-10622
▁eggs	-10623
▁athlet	-10624
▁chapter	-10625
教育部	-10626
▁Requ	-10627
▁Japanese	-10628
inese	-10629
。,	-10630
hus	-10631
▁Yes	-10632
所属	-10633
▁Safety	-10634
bol	-10635
abet	-10636
which	-10637
▁aims	-10638
▁Contin	-10639
战绩	-10640
秋季	-10641
Co	-10642
适量	-10643
▁cake	-10644
▁podcast	-10645
▁description	-10646
▁integ	-10647
▁accurate	-10648
▁monthly	-10649
▁religious	-10650
▁Ron	-10651
▁Arab	-10652
▁theory	-10653
▁Country	-10654
▁massive	-10655
五年	-10656
推送	-10657
isa	-10658
天地	-10659
的所有	-10660
较强的	-10661
▁chosen	-10662
▁command	-10663
南宁	-10664
凝聚	-10665
越高	-10666
迎接	-10667
杂志	-10668
▁Mah	-10669
▁fort	-10670
▁Season	-10671
▁tested	-10672
respond	-10673
▁Harris	-10674
▁公司	-10675
老师的	-10676
▁fees	-10677
夫妻	-10678
aron	-10679
大战	-10680
▁Kh	-10681
美丽的	-10682
▁Games	-10683
导师	-10684
为广大	-10685
onto	-10686
▁burn	-10687
▁singer	-10688
pret	-10689
▁Studies	-10690
··	-10691
座谈	-10692
存在的	-10693
▁rough	-10694
▁Memorial	-10695
友情链接	-10696
▁Building	-10697
▁identity	-10698
▁Administration	-10699
栏目	-10700
选项	-10701
里面的	-10702
▁Story	-10703
▁visited	-10704
▁hundreds	-10705
下单	-10706
othes	-10707
▁believes	-10708
出门	-10709
介绍一下	-10710
▁doubt	-10711
missions	-10712
工序	-10713
另一个	-10714
▁scheme	-10715
肌肉	-10716
诊疗	-10717
osc	-10718
可以用	-10719
如有侵权	-10720
▁examples	-10721
在全国	-10722
▁volunteer	-10723
让他	-10724
真人	-10725
uts	-10726
的学生	-10727
▁improving	-10728
昨日	-10729
分解	-10730
预报	-10731
▁info	-10732
密集	-10733
度和	-10734
▁mm	-10735
不受	-10736
医保	-10737
lig	-10738
▁trib	-10739
▁passing	-10740
残疾	-10741
是怎么	-10742
▁Joseph	-10743
▁infect	-10744
▁Airport	-10745
血压	-10746
相关部门	-10747
▁Help	-10748
承包	-10749
核实	-10750
清水	-10751
在国内	-10752
的空间	-10753
志愿服务	-10754
年初	-10755
新浪	-10756
暂停	-10757
luded	-10758
oking	-10759
▁Training	-10760
制药	-10761
投稿	-10762
聚合	-10763
可以直接	-10764
▁domin	-10765
▁shock	-10766
失去	-10767
海量	-10768
▁Lind	-10769
▁outstanding	-10770
EA	-10771
我觉得	-10772
▁attacks	-10773
▁streets	-10774
会对	-10775
传说	-10776
rome	-10777
吸引了	-10778
▁Bible	-10779
▁division	-10780
分的	-10781
卖家	-10782
▁icon	-10783
CN	-10784
碰撞	-10785
黑龙江	-10786
以下简称	-10787
▁losing	-10788
oster	-10789
▁surprise	-10790
Gr	-10791
.'	-10792
Sim	-10793
城市的	-10794
违法行为	-10795
中秋	-10796
发起	-10797
我在	-10798
懂得	-10799
star	-10800
▁chocolate	-10801
▁incredible	-10802
ev	-10803
Fin	-10804
一对一	-10805
▁replace	-10806
▁organized	-10807
Fl	-10808
强制	-10809
综艺	-10810
abeth	-10811
▁turns	-10812
▁urban	-10813
zy	-10814
热血	-10815
着力	-10816
请您	-10817
▁finance	-10818
春天	-10819
▁Ha	-10820
king	-10821
▁Regional	-10822
▁worldwide	-10823
卧室	-10824
▁assign	-10825
▁Student	-10826
家园	-10827
iot	-10828
健康的	-10829
没有任何	-10830
▁Mult	-10831
HO	-10832
sm	-10833
rition	-10834
▁lessons	-10835
不论	-10836
假日	-10837
初心	-10838
少儿	-10839
搬家	-10840
aven	-10841
装箱	-10842
采样	-10843
)**	-10844
Jan	-10845
▁PDF	-10846
▁Tax	-10847
▁grown	-10848
影像	-10849
▁Jac	-10850
▁Force	-10851
▁frame	-10852
Hi	-10853
后卫	-10854
▁Hard	-10855
▁Scotland	-10856
签署	-10857
▁AR	-10858
争议	-10859
元件	-10860
实惠	-10861
之所以	-10862
的现象	-10863
▁Heart	-10864
achelor	-10865
多年来	-10866
▁affili	-10867
百年	-10868
续航	-10869
ented	-10870
athy	-10871
也不是	-10872
宇宙	-10873
他们在	-10874
▁Pot	-10875
folio	-10876
▁dangerous	-10877
两大	-10878
文艺	-10879
环氧	-10880
细腻	-10881
节点	-10882
quir	-10883
主要用于	-10884
▁offices	-10885
这就	-10886
安全的	-10887
▁believed	-10888
的手	-10889
工作日	-10890
的重要性	-10891
▁climb	-10892
▁critic	-10893
南昌	-10894
▁Bed	-10895
▁Men	-10896
▁fifth	-10897
▁illness	-10898
▁specifically	-10899
线索	-10900
过多	-10901
▁diet	-10902
▁newly	-10903
秘书	-10904
这家	-10905
▁NOT	-10906
与此同时	-10907
新闻资讯	-10908
inois	-10909
强烈	-10910
▁Hy	-10911
▁valuable	-10912
防御	-10913
▁随着	-10914
▁vulner	-10915
ucks	-10916
.*	-10917
法师	-10918
ulf	-10919
但是在	-10920
▁vital	-10921
▁desire	-10922
更加的	-10923
这个时候	-10924
处的	-10925
立刻	-10926
供水	-10927
olec	-10928
机械设备	-10929
xi	-10930
一只	-10931
一支	-10932
人都	-10933
关爱	-10934
anes	-10935
apping	-10936
▁Santa	-10937
雕塑	-10938
什么样的	-10939
▁bike	-10940
▁您	-10941
泰国	-10942
越来越多的	-10943
%.	-10944
之家	-10945
水箱	-10946
▁failure	-10947
%)	-10948
▁rom	-10949
▁broadcast	-10950
▁collected	-10951
▁Jenn	-10952
▁teasp	-10953
▁medicine	-10954
▁competitive	-10955
请求	-10956
那就	-10957
阳台	-10958
▁seasons	-10959
▁Description	-10960
增速	-10961
构造	-10962
离心	-10963
▁lect	-10964
utional	-10965
▁Colorado	-10966
▁improvement	-10967
”、	-10968
天空	-10969
实战	-10970
遵循	-10971
▁Four	-10972
梅西	-10973
Location	-10974
留意	-10975
▁Systems	-10976
▁suspect	-10977
城镇	-10978
组建	-10979
uling	-10980
不动	-10981
看法	-10982
进去	-10983
▁Cert	-10984
▁depth	-10985
▁sav	-10986
▁estimated	-10987
you	-10988
born	-10989
▁sheet	-10990
出场	-10991
iti	-10992
iability	-10993
入学	-10994
素养	-10995
rations	-10996
▁Es	-10997
该项目	-10998
burgh	-10999
行程	-11000
▁Note	-11001
▁Turn	-11002
▁properly	-11003
:《	-11004
FF	-11005
处理器	-11006
澳大利	-11007
技术和	-11008
妻子	-11009
执照	-11010
检修	-11011
赔偿	-11012
oup	-11013
onym	-11014
一看	-11015
▁newsletter	-11016
过滤器	-11017
▁mut	-11018
berry	-11019
▁column	-11020
▁basketball	-11021
▁entertainment	-11022
写作	-11023
并将	-11024
acher	-11025
▁warn	-11026
acking	-11027
rivate	-11028
▁memories	-11029
以此	-11030
▁Control	-11031
洁净	-11032
▁Space	-11033
▁instructions	-11034
▁张	-11035
备受	-11036
▁Hor	-11037
真诚	-11038
抑制	-11039
Oct	-11040
摄像头	-11041
razil	-11042
吃的	-11043
男女	-11044
▁agric	-11045
▁freedom	-11046
ji	-11047
意向	-11048
轿车	-11049
arry	-11050
▁Houston	-11051
▁(@	-11052
也非常	-11053
▁nor	-11054
▁Perform	-11055
激活	-11056
国家级	-11057
▁expectations	-11058
操控	-11059
演讲	-11060
影响到	-11061
level	-11062
▁Three	-11063
▁debate	-11064
▁prompt	-11065
▁MD	-11066
选择了	-11067
▁Bh	-11068
shire	-11069
▁colors	-11070
▁linked	-11071
▁repair	-11072
小编就	-11073
推出的	-11074
▁magazine	-11075
▁spiritual	-11076
无关	-11077
随时随	-11078
▁Theatre	-11079
增添	-11080
Have	-11081
▁formed	-11082
inations	-11083
▁Resources	-11084
有个	-11085
SEO	-11086
ghan	-11087
▁Iran	-11088
▁founded	-11089
的高度	-11090
owing	-11091
分别是	-11092
Tube	-11093
hent	-11094
▁DC	-11095
▁pun	-11096
anges	-11097
▁Only	-11098
▁garage	-11099
结算	-11100
ended	-11101
ossible	-11102
▁claimed	-11103
切尔	-11104
古代	-11105
外出	-11106
水中	-11107
用药	-11108
让自己	-11109
特斯	-11110
▁proceed	-11111
ras	-11112
▁supposed	-11113
SD	-11114
利物	-11115
制成	-11116
必备	-11117
怀孕	-11118
爆炸	-11119
rat	-11120
我们就	-11121
弹簧	-11122
牢固	-11123
总决赛	-11124
▁architecture	-11125
列表	-11126
▁bridge	-11127
▁Pacific	-11128
▁installation	-11129
仿佛	-11130
支架	-11131
▁drugs	-11132
▁sac	-11133
▁Brand	-11134
单一	-11135
是我	-11136
本届	-11137
ATE	-11138
His	-11139
主要有	-11140
▁zone	-11141
▁downtown	-11142
督导	-11143
全面的	-11144
足够的	-11145
▁Forest	-11146
MI	-11147
▁graduated	-11148
▁Ros	-11149
▁herself	-11150
iser	-11151
▁Brad	-11152
Well	-11153
▁east	-11154
▁negoti	-11155
辉煌	-11156
附加	-11157
▁Ra	-11158
哈尔滨	-11159
赢得了	-11160
▁judge	-11161
anguages	-11162
进了	-11163
可靠性	-11164
条件下	-11165
凌晨	-11166
ership	-11167
▁orders	-11168
的老	-11169
有效地	-11170
法人	-11171
fts	-11172
rich	-11173
▁cas	-11174
家中	-11175
射击	-11176
利物浦	-11177
▁pic	-11178
在游戏中	-11179
网站首页	-11180
osite	-11181
▁favourite	-11182
人心	-11183
发达	-11184
拆除	-11185
长春	-11186
nic	-11187
一次性	-11188
的一款	-11189
立场	-11190
aka	-11191
▁faces	-11192
叶片	-11193
走访	-11194
澳大利亚	-11195
▁Emer	-11196
▁reform	-11197
发酵	-11198
▁Arizona	-11199
吃饭	-11200
各级	-11201
▁syn	-11202
▁accessible	-11203
又有	-11204
编程	-11205
这是一个	-11206
estyle	-11207
resents	-11208
平整	-11209
明年	-11210
▁boost	-11211
▁Agency	-11212
人文	-11213
特殊的	-11214
▁Son	-11215
法律责任	-11216
▁engage	-11217
有力	-11218
▁equal	-11219
的项目	-11220
产品中心	-11221
五个	-11222
推出了	-11223
utor	-11224
东风	-11225
代谢	-11226
服饰	-11227
▁Hand	-11228
▁terr	-11229
nesota	-11230
▁tasks	-11231
Sm	-11232
转会	-11233
还不	-11234
oil	-11235
Public	-11236
▁cutting	-11237
进而	-11238
▁Fox	-11239
inson	-11240
▁matches	-11241
折叠	-11242
▁Custom	-11243
UI	-11244
▁effectively	-11245
职称	-11246
会导致	-11247
▁Ray	-11248
法律法规	-11249
▁cycle	-11250
▁trouble	-11251
忽视	-11252
直流	-11253
负担	-11254
ali	-11255
较好的	-11256
▁Bul	-11257
一人	-11258
医护	-11259
的不同	-11260
经济发展	-11261
▁banks	-11262
▁protein	-11263
克服	-11264
老师们	-11265
▁Level	-11266
▁reliable	-11267
传染	-11268
是为了	-11269
▁performing	-11270
一块	-11271
债券	-11272
大厅	-11273
yers	-11274
▁Ext	-11275
确诊病例	-11276
▁electronic	-11277
▁suffered	-11278
▁purchased	-11279
ui	-11280
北方	-11281
▁selling	-11282
涉嫌	-11283
umes	-11284
地质	-11285
粮食	-11286
赠送	-11287
▁regulations	-11288
导体	-11289
垃圾分类	-11290
▁hits	-11291
▁<	-11292
数码	-11293
riculum	-11294
储备	-11295
坚实	-11296
▁pra	-11297
▁gro	-11298
纳入	-11299
▁fighting	-11300
光滑	-11301
接头	-11302
num	-11303
让孩子	-11304
▁Guide	-11305
▁param	-11306
▁password	-11307
顺序	-11308
uzz	-11309
eman	-11310
▁male	-11311
前进	-11312
回合	-11313
大厦	-11314
的综合	-11315
▁rot	-11316
当日	-11317
gent	-11318
品的	-11319
▁chopped	-11320
▁noticed	-11321
▁impressive	-11322
既然	-11323
▁occurred	-11324
尚未	-11325
牛奶	-11326
触摸	-11327
▁entreprene	-11328
vy	-11329
大专	-11330
ogen	-11331
受益	-11332
层的	-11333
转发	-11334
网易	-11335
其他的	-11336
后再	-11337
女排	-11338
▁Rs	-11339
▁continuing	-11340
原文	-11341
run	-11342
看上去	-11343
白癜风的	-11344
▁rural	-11345
▁announcement	-11346
其余	-11347
市区	-11348
的世界	-11349
anna	-11350
▁Transport	-11351
cknow	-11352
▁Living	-11353
让大家	-11354
▁Pass	-11355
arrow	-11356
▁suitable	-11357
▁Premier	-11358
▁residential	-11359
久的	-11360
大批	-11361
晋级	-11362
骑士	-11363
merce	-11364
▁doctors	-11365
摆放	-11366
西亚	-11367
Two	-11368
▁Nick	-11369
ounter	-11370
▁circumstances	-11371
型材	-11372
恒大	-11373
角逐	-11374
陌生	-11375
uclear	-11376
全文	-11377
生肖	-11378
▁conver	-11379
▁monitoring	-11380
历程	-11381
爆料	-11382
福州	-11383
试试	-11384
▁rand	-11385
▁suggested	-11386
izabeth	-11387
▁photograp	-11388
广阔	-11389
才可以	-11390
aine	-11391
Learn	-11392
iking	-11393
weight	-11394
▁resolution	-11395
整洁	-11396
不代表	-11397
ilst	-11398
eller	-11399
高质量发展	-11400
▁consumers	-11401
▁initiative	-11402
▁Jersey	-11403
da	-11404
灾害	-11405
皮带	-11406
▁weak	-11407
terior	-11408
体温	-11409
卫星	-11410
▁PR	-11411
ih	-11412
附属	-11413
一部分	-11414
出色的	-11415
▁Contact	-11416
务必	-11417
复印件	-11418
▁Irish	-11419
▁stands	-11420
Download	-11421
精彩的	-11422
ologist	-11423
体内	-11424
▁fixed	-11425
▁squad	-11426
时机	-11427
疲劳	-11428
▁upper	-11429
▁transportation	-11430
▁advert	-11431
▁turning	-11432
▁qualified	-11433
▁performances	-11434
个股	-11435
店面	-11436
彩色	-11437
發展	-11438
▁guitar	-11439
▁possibly	-11440
nda	-11441
zer	-11442
如果有	-11443
▁decade	-11444
GA	-11445
相机	-11446
停车场	-11447
▁Est	-11448
Mark	-11449
剩余	-11450
▁concert	-11451
ateful	-11452
▁shots	-11453
▁experim	-11454
可通过	-11455
▁rac	-11456
heast	-11457
▁soil	-11458
▁Kevin	-11459
▁encouraged	-11460
▁legislation	-11461
之际	-11462
依赖	-11463
用地	-11464
钢丝	-11465
下面就	-11466
▁[...]	-11467
▁Reserved	-11468
分局	-11469
独家	-11470
ensed	-11471
多项	-11472
中超	-11473
内涵	-11474
清单	-11475
▁sudden	-11476
graduate	-11477
▁presents	-11478
▁celebration	-11479
的变化	-11480
Date	-11481
▁Conf	-11482
▁stone	-11483
套装	-11484
蛋糕	-11485
常用的	-11486
▁insight	-11487
pa	-11488
一度	-11489
stone	-11490
▁Amazon	-11491
任职	-11492
见证	-11493
awa	-11494
▁Sea	-11495
▁appeal	-11496
兼职	-11497
提到	-11498
稿件	-11499
foot	-11500
▁returning	-11501
身心	-11502
控制器	-11503
▁Soft	-11504
▁efficiency	-11505
值得一提	-11506
▁satisf	-11507
要点	-11508
观念	-11509
▁Person	-11510
▁anticip	-11511
过敏	-11512
首席	-11513
agon	-11514
▁Creek	-11515
▁bigger	-11516
▁王	-11517
水平的	-11518
▁sty	-11519
接地	-11520
iner	-11521
▁rice	-11522
▁fishing	-11523
▁proposal	-11524
▁recording	-11525
▁foundation	-11526
▁Stan	-11527
arters	-11528
▁forecast	-11529
VI	-11530
美女	-11531
stra	-11532
▁Annual	-11533
▁providers	-11534
▁typically	-11535
▁mand	-11536
几点	-11537
在外	-11538
地块	-11539
警察	-11540
adel	-11541
ensation	-11542
的三	-11543
ican	-11544
也就是说	-11545
▁findings	-11546
▁Fall	-11547
即便	-11548
ogs	-11549
lder	-11550
圆形	-11551
razy	-11552
icide	-11553
▁Girl	-11554
▁Current	-11555
厉害	-11556
▁Ent	-11557
▁suit	-11558
捐赠	-11559
长城	-11560
▁framework	-11561
冶金	-11562
沉淀	-11563
▁Cost	-11564
又是	-11565
国务	-11566
遗传	-11567
uter	-11568
理工	-11569
起点	-11570
▁tab	-11571
▁tea	-11572
螺栓	-11573
广州市	-11574
from	-11575
▁Kat	-11576
▁enthus	-11577
▁knowing	-11578
理事	-11579
bro	-11580
▁Before	-11581
▁classroom	-11582
内蒙古	-11583
▁random	-11584
▁attached	-11585
彰显	-11586
ubs	-11587
▁iron	-11588
SL	-11589
小吃	-11590
Many	-11591
▁execut	-11592
SI	-11593
河北省	-11594
▁coc	-11595
▁Staff	-11596
▁drawing	-11597
ura	-11598
▁elev	-11599
▁grass	-11600
潜在	-11601
门的	-11602
▁Rh	-11603
发生了	-11604
▁Circ	-11605
▁Roman	-11606
▁organisation	-11607
Form	-11608
▁Key	-11609
交通运输	-11610
▁Writ	-11611
▁inches	-11612
跨境	-11613
最重要的	-11614
inity	-11615
▁walls	-11616
您可以	-11617
文档	-11618
的成绩	-11619
可以帮助	-11620
▁Illinois	-11621
▁attending	-11622
差别	-11623
▁Lo	-11624
▁Film	-11625
▁李	-11626
▁fulf	-11627
▁appointed	-11628
▁Championship	-11629
优惠券	-11630
被称为	-11631
being	-11632
▁Donald	-11633
▁represents	-11634
df	-11635
wa	-11636
xy	-11637
▁realize	-11638
?"	-11639
初期	-11640
水泵	-11641
▁pin	-11642
东京	-11643
感恩	-11644
mont	-11645
▁Lew	-11646
具有良好的	-11647
▁factor	-11648
中央空调	-11649
bal	-11650
ulous	-11651
乐观	-11652
新款	-11653
高新技术	-11654
▁Child	-11655
博览	-11656
少数	-11657
政务	-11658
边缘	-11659
▁wins	-11660
眼前	-11661
Wind	-11662
优越	-11663
家装	-11664
放大	-11665
业有限公司	-11666
▁compliance	-11667
DR	-11668
汇总	-11669
▁mo	-11670
▁eligible	-11671
▁;	-11672
文物	-11673
▁Ap	-11674
的研究	-11675
离不开	-11676
战术	-11677
承办	-11678
焦点	-11679
送到	-11680
培训班	-11681
lers	-11682
▁privacy	-11683
▁tickets	-11684
owa	-11685
展示了	-11686
ordan	-11687
▁penal	-11688
▁worst	-11689
▁pulled	-11690
巡查	-11691
搬运	-11692
直观	-11693
过度	-11694
特效	-11695
▁facts	-11696
▁loving	-11697
ogy	-11698
▁mainly	-11699
▁telling	-11700
借款	-11701
年前	-11702
证件	-11703
enities	-11704
卫生间	-11705
高新区	-11706
地域	-11707
也比较	-11708
away	-11709
。****	-11710
▁consequ	-11711
BM	-11712
却是	-11713
对战	-11714
感应	-11715
then	-11716
▁signing	-11717
▁expression	-11718
耐腐蚀	-11719
front	-11720
▁remote	-11721
▁thread	-11722
SW	-11723
局面	-11724
精美	-11725
▁elected	-11726
▁listening	-11727
weet	-11728
▁ast	-11729
▁wealth	-11730
强劲	-11731
统筹	-11732
若是	-11733
worth	-11734
▁Oak	-11735
.’	-11736
发票	-11737
等工作	-11738
gypt	-11739
▁finds	-11740
▁worse	-11741
▁cleaning	-11742
富有	-11743
四川省	-11744
ii	-11745
可选	-11746
Will	-11747
▁inspiration	-11748
▁preparation	-11749
上周	-11750
期刊	-11751
▁isol	-11752
他说	-11753
原油	-11754
天然气	-11755
破碎机	-11756
Where	-11757
▁bench	-11758
▁marked	-11759
多名	-11760
▁MP	-11761
▁Low	-11762
ensity	-11763
▁iPhone	-11764
▁Capital	-11765
对抗	-11766
刷新	-11767
宝马	-11768
污泥	-11769
▁ring	-11770
帮扶	-11771
率为	-11772
调解	-11773
▁Medic	-11774
▁permission	-11775
▁Brazil	-11776
▁output	-11777
时间的	-11778
iami	-11779
▁aside	-11780
▁showc	-11781
等特点	-11782
▁Ren	-11783
▁ille	-11784
▁assistant	-11785
TE	-11786
当你	-11787
疼痛	-11788
▁arg	-11789
同类	-11790
承认	-11791
说法	-11792
饰演	-11793
▁Number	-11794
▁anniversary	-11795
眼镜	-11796
而来	-11797
不可能	-11798
创立	-11799
继承	-11800
证实	-11801
ycling	-11802
VE	-11803
传真	-11804
值班	-11805
带给	-11806
▁pitch	-11807
aa	-11808
脸上	-11809
uis	-11810
▁consists	-11811
▁月	-11812
妇女	-11813
的玩家	-11814
▁hasn	-11815
▁Guard	-11816
:[[	-11817
万平方米	-11818
走了	-11819
还款	-11820
Med	-11821
占地面积	-11822
novation	-11823
季后	-11824
规定的	-11825
▁yellow	-11826
人事	-11827
uster	-11828
▁slic	-11829
▁Finance	-11830
▁Experience	-11831
▁Broad	-11832
▁Radio	-11833
出一	-11834
时间为	-11835
▁rub	-11836
Police	-11837
冰箱	-11838
命运	-11839
要在	-11840
redit	-11841
集团有限公司	-11842
▁situations	-11843
啤酒	-11844
商户	-11845
牛肉	-11846
ela	-11847
▁Mu	-11848
▁Past	-11849
▁sample	-11850
▁permanent	-11851
▁adopt	-11852
▁label	-11853
寻求	-11854
紧凑	-11855
需求的	-11856
▁Labor	-11857
▁copyright	-11858
洽谈	-11859
降低了	-11860
区间	-11861
等领域	-11862
▁ancient	-11863
蛋白质	-11864
acon	-11865
▁Kenn	-11866
▁dollars	-11867
▁breaking	-11868
现货	-11869
▁Name	-11870
▁contributions	-11871
渐渐	-11872
▁rein	-11873
▁Schools	-11874
▁charity	-11875
亏损	-11876
亲自	-11877
▁listing	-11878
▁achieved	-11879
野生	-11880
门槛	-11881
izz	-11882
fall	-11883
▁Youth	-11884
duction	-11885
交互	-11886
层面	-11887
gas	-11888
allas	-11889
hetic	-11890
▁dynamic	-11891
代替	-11892
欧元	-11893
ogether	-11894
▁MA	-11895
Sign	-11896
精力	-11897
una	-11898
具体的	-11899
变成了	-11900
hell	-11901
▁bat	-11902
▁acting	-11903
永久	-11904
衣柜	-11905
交易所	-11906
gov	-11907
微生物	-11908
▁Queen	-11909
协商	-11910
学者	-11911
江南	-11912
▁keeps	-11913
bar	-11914
hat	-11915
创始人	-11916
等行业	-11917
▁golf	-11918
▁belief	-11919
▁plug	-11920
关联	-11921
▁letters	-11922
▁approval	-11923
▁ministry	-11924
Su	-11925
住了	-11926
定做	-11927
的花	-11928
路径	-11929
造价	-11930
才能够	-11931
电视台	-11932
ensus	-11933
▁buying	-11934
业界	-11935
全天	-11936
弘扬	-11937
新兴	-11938
队长	-11939
viv	-11940
▁messages	-11941
梳理	-11942
缺少	-11943
▁mir	-11944
rovers	-11945
在职	-11946
▁counsel	-11947
隔热	-11948
▁Minnesota	-11949
unction	-11950
▁papers	-11951
▁Corporation	-11952
一带	-11953
obby	-11954
▁Brook	-11955
说了	-11956
odd	-11957
季后赛	-11958
Open	-11959
▁Dun	-11960
apped	-11961
▁Brian	-11962
▁shower	-11963
店的	-11964
pton	-11965
▁Bra	-11966
民间	-11967
退出	-11968
金沙	-11969
疫情防控工作	-11970
事宜	-11971
内存	-11972
宽度	-11973
▁Cy	-11974
▁officially	-11975
完整的	-11976
▁Estate	-11977
矫正	-11978
▁preparing	-11979
法治	-11980
mal	-11981
▁Eastern	-11982
▁Sciences	-11983
发射	-11984
人民医院	-11985
▁Adam	-11986
▁goods	-11987
矿山	-11988
精华	-11989
嫌疑人	-11990
▁Mill	-11991
原始	-11992
irty	-11993
男孩	-11994
ingly	-11995
▁broke	-11996
▁obtain	-11997
▁association	-11998
从小	-11999
助理	-12000
得知	-12001
门票	-12002
▁walked	-12003
噪声	-12004
手的	-12005
公务	-12006
巩固	-12007
门诊	-12008
▁产品	-12009
icit	-12010
▁sick	-12011
▁admitted	-12012
▁correspond	-12013
功夫	-12014
感动	-12015
灰尘	-12016
膨胀	-12017
acked	-12018
▁carbon	-12019
不见	-12020
作物	-12021
比如说	-12022
已经成为	-12023
▁Davis	-12024
▁programming	-12025
TO	-12026
为例	-12027
粉末	-12028
聚氨	-12029
▁Tech	-12030
落后	-12031
▁seed	-12032
▁yard	-12033
▁covering	-12034
在一	-12035
等的	-12036
行车	-12037
震荡	-12038
ila	-12039
即时	-12040
填充	-12041
油漆	-12042
lo	-12043
严禁	-12044
违反	-12045
Who	-12046
等功能	-12047
手中	-12048
信息的	-12049
固化	-12050
小镇	-12051
笔试	-12052
辛苦	-12053
aska	-12054
▁odd	-12055
▁sky	-12056
学子	-12057
治愈	-12058
,...	-12059
asts	-12060
rates	-12061
最高的	-12062
ifer	-12063
▁roads	-12064
▁ordered	-12065
管的	-12066
值得一提的是	-12067
▁stores	-12068
▁patterns	-12069
▁atmosphere	-12070
空中	-12071
文化的	-12072
▁Gro	-12073
▁colleagues	-12074
外教	-12075
隔音	-12076
uma	-12077
人民群众	-12078
▁Fact	-12079
▁Members	-12080
壁纸	-12081
Ing	-12082
▁Bridge	-12083
珠宝	-12084
陷入	-12085
alle	-12086
▁Avenue	-12087
▁Assistant	-12088
▁authority	-12089
▁Republican	-12090
恋爱	-12091
易于	-12092
wan	-12093
兴奋	-12094
环球	-12095
▁firms	-12096
▁younger	-12097
中式	-12098
打包	-12099
支部	-12100
钥匙	-12101
Once	-12102
这种情况	-12103
五大	-12104
平常	-12105
担保	-12106
occer	-12107
▁glad	-12108
玫瑰	-12109
▁Chall	-12110
▁acknow	-12111
中标	-12112
从来	-12113
这份	-12114
inals	-12115
▁boss	-12116
▁liquid	-12117
▁focuses	-12118
▁extension	-12119
互联	-12120
吊顶	-12121
edu	-12122
▁grad	-12123
▁politics	-12124
裁判	-12125
!"	-12126
仅为	-12127
列车	-12128
四季	-12129
现已	-12130
辣椒	-12131
润滑油	-12132
▁Bru	-12133
▁prayer	-12134
▁scoring	-12135
集装箱	-12136
▁pip	-12137
▁Mountain	-12138
▁differences	-12139
国务院	-12140
▁Down	-12141
▁frequently	-12142
CM	-12143
HL	-12144
▁Bang	-12145
▁rating	-12146
网的	-12147
▁Ms	-12148
▁relief	-12149
▁recipes	-12150
新城	-12151
绘画	-12152
面膜	-12153
.”“	-12154
Aug	-12155
lock	-12156
▁pharm	-12157
▁risks	-12158
▁outcomes	-12159
客运	-12160
新闻中心	-12161
▁Wilson	-12162
▁dealing	-12163
▁Partners	-12164
随时随地	-12165
TP	-12166
当代	-12167
其中的	-12168
ador	-12169
▁immediate	-12170
塑造	-12171
greg	-12172
▁susp	-12173
珠海	-12174
经典的	-12175
▁surf	-12176
▁totally	-12177
▁consumer	-12178
UV	-12179
首批	-12180
电站	-12181
Then	-12182
科技创新	-12183
▁Village	-12184
▁Governor	-12185
杂质	-12186
环境的	-12187
▁Rom	-12188
饮品	-12189
变速箱	-12190
▁cra	-12191
▁horse	-12192
▁defend	-12193
Although	-12194
▁objects	-12195
运营商	-12196
▁Eric	-12197
▁trained	-12198
▁restrictions	-12199
面部	-12200
▁mode	-12201
擅长	-12202
undry	-12203
不高	-12204
提问	-12205
Work	-12206
▁我	-12207
人和	-12208
公主	-12209
营业执照	-12210
▁cups	-12211
▁audio	-12212
和技术	-12213
爱好者	-12214
的前提	-12215
anger	-12216
▁spin	-12217
▁gender	-12218
▁strike	-12219
▁instrument	-12220
wich	-12221
▁Using	-12222
▁Chinese	-12223
▁birds	-12224
▁involving	-12225
利的	-12226
学习的	-12227
Source	-12228
▁paying	-12229
丽的	-12230
也是非常	-12231
▁meals	-12232
▁closing	-12233
三十	-12234
不敢	-12235
全县	-12236
用车	-12237
owers	-12238
▁trends	-12239
▁principles	-12240
前沿	-12241
得以	-12242
配电	-12243
额度	-12244
Ass	-12245
▁enforcement	-12246
而出	-12247
rell	-12248
▁tech	-12249
▁accused	-12250
最具	-12251
衔接	-12252
证据	-12253
▁describe	-12254
更快	-12255
很高的	-12256
市场监管	-12257
▁primarily	-12258
住宿	-12259
灌装	-12260
离婚	-12261
特别的	-12262
▁Run	-12263
ylvan	-12264
▁Advis	-12265
END	-12266
▁Bath	-12267
▁adventure	-12268
▁participation	-12269
VS	-12270
一道	-12271
太大	-12272
在哪里	-12273
就可以了	-12274
hemat	-12275
▁skill	-12276
▁retirement	-12277
位的	-12278
客观	-12279
aud	-12280
▁cm	-12281
▁approaches	-12282
ART	-12283
▁faced	-12284
▁possibility	-12285
加重	-12286
开车	-12287
▁evol	-12288
▁Stephen	-12289
扭矩	-12290
期内	-12291
adow	-12292
active	-12293
乃至	-12294
犹豫	-12295
组装	-12296
远离	-12297
▁Josh	-12298
▁height	-12299
▁Welcome	-12300
不宜	-12301
的行为	-12302
▁likes	-12303
ospitals	-12304
小朋友	-12305
▁Jewish	-12306
▁Spirit	-12307
▁formal	-12308
加拿	-12309
将来	-12310
新颖	-12311
第七	-12312
这对	-12313
真实的	-12314
▁tsp	-12315
▁explains	-12316
▁respectively	-12317
ko	-12318
健全	-12319
分泌	-12320
发售	-12321
新年	-12322
脉冲	-12323
蒸发	-12324
▁Swed	-12325
央视	-12326
越多	-12327
▁tail	-12328
▁entrance	-12329
▁engagement	-12330
su	-12331
▁pure	-12332
▁moves	-12333
▁communications	-12334
手指	-12335
gor	-12336
能力的	-12337
▁victims	-12338
▁recommendations	-12339
科室	-12340
▁elections	-12341
▁professor	-12342
▁suffering	-12343
▁workshops	-12344
▁structures	-12345
****************	-12346
HA	-12347
器件	-12348
目前的	-12349
▁Mrs	-12350
▁adm	-12351
▁kill	-12352
▁studied	-12353
更新时间	-12354
开出	-12355
涂层	-12356
特定	-12357
▁tur	-12358
的那	-12359
oured	-12360
▁alcohol	-12361
▁observed	-12362
等到	-12363
铸造	-12364
stein	-12365
▁Anth	-12366
▁luck	-12367
▁onion	-12368
▁conflict	-12369
奶奶	-12370
征集	-12371
Off	-12372
一般的	-12373
出现的	-12374
记者从	-12375
▁exec	-12376
▁Station	-12377
▁defined	-12378
▁Vice	-12379
▁tall	-12380
▁Maybe	-12381
site	-12382
▁Fred	-12383
▁Toronto	-12384
过后	-12385
在选择	-12386
▁Dar	-12387
▁Supreme	-12388
▁calendar	-12389
rants	-12390
里程	-12391
▁Put	-12392
一辆	-12393
存放	-12394
特色的	-12395
▁Cat	-12396
▁everyday	-12397
▁scientists	-12398
了吧	-12399
olit	-12400
大方	-12401
支出	-12402
并未	-12403
见到	-12404
了一些	-12405
▁profit	-12406
▁rising	-12407
▁photography	-12408
山市	-12409
购房	-12410
ERS	-12411
iki	-12412
灵魂	-12413
留在	-12414
▁Sn	-12415
价钱	-12416
ilton	-12417
组件	-12418
Car	-12419
▁Britain	-12420
▁contribution	-12421
▁planet	-12422
倡导	-12423
▁networks	-12424
工件	-12425
柔软	-12426
践行	-12427
▁Nigeria	-12428
聚氨酯	-12429
▁shift	-12430
▁shops	-12431
▁bodies	-12432
▁hosting	-12433
El	-12434
国民	-12435
网点	-12436
革命	-12437
卡通	-12438
均衡	-12439
▁Ro	-12440
仅代表	-12441
SN	-12442
外科	-12443
轻轻	-12444
管理工作	-12445
▁struck	-12446
▁YouTube	-12447
▁persons	-12448
加固	-12449
曲线	-12450
欧美	-12451
目光	-12452
购车	-12453
小时内	-12454
新能源汽车	-12455
▁Stock	-12456
▁trend	-12457
▁undert	-12458
▁aircraft	-12459
外汇	-12460
▁Search	-12461
▁vaccine	-12462
▁anywhere	-12463
▁thorough	-12464
LY	-12465
困扰	-12466
畅通	-12467
火热	-12468
问答	-12469
▁Chel	-12470
▁clar	-12471
会被	-12472
bsp	-12473
▁yes	-12474
为进一步	-12475
▁interviews	-12476
约为	-12477
AND	-12478
也是一	-12479
要知道	-12480
▁Spain	-12481
▁AD	-12482
什么时候	-12483
▁Miller	-12484
▁maintained	-12485
▁”	-12486
付费	-12487
婚礼	-12488
庆祝	-12489
▁mal	-12490
▁layer	-12491
▁heading	-12492
▁Ur	-12493
class	-12494
▁constantly	-12495
居然	-12496
▁farmers	-12497
BR	-12498
怎样的	-12499
ilty	-12500
全国各地	-12501
狗狗	-12502
bles	-12503
print	-12504
坐在	-12505
感的	-12506
ennes	-12507
▁rear	-12508
▁acquis	-12509
参展	-12510
折扣	-12511
隐私	-12512
▁Hi	-12513
urric	-12514
青海	-12515
▁Plus	-12516
▁hurt	-12517
▁ok	-12518
▁Line	-12519
▁Point	-12520
▁reject	-12521
▁imagine	-12522
▁priority	-12523
转向	-12524
▁bid	-12525
▁Does	-12526
▁headed	-12527
国有	-12528
直线	-12529
贵阳	-12530
为核心	-12531
玩家的	-12532
▁lights	-12533
▁highlights	-12534
▁reportedly	-12535
东部	-12536
师资	-12537
浏览器	-12538
人性	-12539
注入	-12540
▁foods	-12541
▁Gallery	-12542
本质	-12543
查找	-12544
aze	-12545
通讯员	-12546
urse	-12547
可以看到	-12548
▁chose	-12549
▁supplies	-12550
未能	-12551
Vis	-12552
当事人	-12553
查看更多	-12554
▁Kingdom	-12555
公积	-12556
截图	-12557
更容易	-12558
相当于	-12559
▁managers	-12560
电线	-12561
秘密	-12562
ilipp	-12563
▁empt	-12564
▁mile	-12565
▁champion	-12566
子女	-12567
神奇	-12568
Time	-12569
▁diversity	-12570
▁industries	-12571
▁relatively	-12572
ione	-12573
共赢	-12574
球场	-12575
伴随着	-12576
原标题	-12577
▁sew	-12578
各种各样的	-12579
▁solar	-12580
▁operate	-12581
▁technique	-12582
不对	-12583
江湖	-12584
车道	-12585
还可	-12586
预告	-12587
完成后	-12588
新一代	-12589
▁requests	-12590
”(	-12591
护士	-12592
igen	-12593
主页	-12594
争夺	-12595
年以上	-12596
▁Blog	-12597
▁organisations	-12598
总额	-12599
成年人	-12600
的具体	-12601
▁Holy	-12602
▁laugh	-12603
▁fasc	-12604
▁drama	-12605
每位	-12606
私人	-12607
iley	-12608
osophy	-12609
▁folks	-12610
一期	-12611
套餐	-12612
沥青	-12613
▁Egypt	-12614
▁remained	-12615
本着	-12616
演绎	-12617
▁lake	-12618
▁Civil	-12619
▁Price	-12620
▁juice	-12621
▁portfolio	-12622
▁小	-12623
这项	-12624
▁Bon	-12625
stream	-12626
极致	-12627
▁discl	-12628
▁availability	-12629
十字	-12630
将以	-12631
慢性	-12632
抵抗	-12633
eters	-12634
uction	-12635
▁Elizabeth	-12636
包裹	-12637
境外	-12638
曼城	-12639
该如何	-12640
▁rose	-12641
giving	-12642
▁choices	-12643
▁recover	-12644
多久	-12645
大桥	-12646
奖金	-12647
拉开	-12648
的确	-12649
道理	-12650
▁Event	-12651
▁veteran	-12652
他是	-12653
▁Moh	-12654
▁Forum	-12655
不当	-12656
汽油	-12657
在一个	-12658
Comp	-12659
前面	-12660
极为	-12661
测评	-12662
各部门	-12663
▁suc	-12664
▁nomin	-12665
▁recre	-12666
▁faster	-12667
▁recruit	-12668
▁expansion	-12669
亚博	-12670
螺丝	-12671
所以说	-12672
AF	-12673
护航	-12674
随便	-12675
anny	-12676
regon	-12677
▁marks	-12678
▁integrated	-12679
VD	-12680
合约	-12681
民营	-12682
贝尔	-12683
▁sen	-12684
ingham	-12685
▁stretch	-12686
▁unknown	-12687
▁Football	-12688
天内	-12689
▁nom	-12690
ockey	-12691
再度	-12692
合伙	-12693
烦恼	-12694
摩托车	-12695
效率高	-12696
cific	-12697
dated	-12698
▁bear	-12699
▁replaced	-12700
资深	-12701
安徽省	-12702
▁Mir	-12703
isted	-12704
▁mini	-12705
▁neck	-12706
燃油	-12707
魔法	-12708
▁Mo	-12709
▁posting	-12710
书籍	-12711
夺冠	-12712
讲话	-12713
越大	-12714
▁Page	-12715
▁Miami	-12716
▁legend	-12717
▁experiment	-12718
在新	-12719
展厅	-12720
会议室	-12721
平台上	-12722
▁Eag	-12723
▁Video	-12724
伸缩	-12725
我省	-12726
就已经	-12727
管理的	-12728
arents	-12729
会让	-12730
解放	-12731
雕刻	-12732
▁Mayor	-12733
▁engaged	-12734
意的	-12735
olis	-12736
▁Pen	-12737
aping	-12738
感冒	-12739
男生	-12740
绩效	-12741
明的	-12742
遗憾	-12743
今天的	-12744
tical	-12745
GS	-12746
纳税	-12747
股市	-12748
产业发展	-12749
atoes	-12750
otted	-12751
▁Bell	-12752
▁vess	-12753
备用	-12754
视为	-12755
▁FOR	-12756
Abstract	-12757
▁procedure	-12758
经纪	-12759
就能够	-12760
▁Member	-12761
▁crucial	-12762
▁portion	-12763
▁Box	-12764
本次活动	-12765
BD	-12766
zing	-12767
▁bon	-12768
▁Rose	-12769
▁Ukraine	-12770
▁interior	-12771
▁automatically	-12772
视角	-12773
起步	-12774
部长	-12775
高度重视	-12776
ylvania	-12777
低的	-12778
osa	-12779
uls	-12780
▁membership	-12781
债务	-12782
raq	-12783
hour	-12784
▁thin	-12785
iverpool	-12786
▁ensuring	-12787
▁displayed	-12788
图纸	-12789
给您	-12790
▁Ul	-12791
▁Cond	-12792
▁habit	-12793
▁sight	-12794
▁ending	-12795
房源	-12796
新老	-12797
船舶	-12798
otic	-12799
▁plot	-12800
均价	-12801
布袋	-12802
考证	-12803
酒精	-12804
Another	-12805
Description	-12806
睡觉	-12807
raph	-12808
▁NBA	-12809
▁Tam	-12810
取决	-12811
巅峰	-12812
▁Stadium	-12813
▁Architect	-12814
增大	-12815
上面的	-12816
▁Austin	-12817
▁enjoying	-12818
ML	-12819
制的	-12820
女神	-12821
风格的	-12822
▁Hun	-12823
▁wet	-12824
▁wheel	-12825
iy	-12826
战场	-12827
知名度	-12828
▁Ref	-12829
合法权益	-12830
▁Delhi	-12831
拼搏	-12832
身高	-12833
erm	-12834
普通的	-12835
▁Liber	-12836
出于	-12837
安心	-12838
时时	-12839
月初	-12840
病的	-12841
的结果	-12842
这两个	-12843
▁Common	-12844
▁typical	-12845
域名	-12846
最早	-12847
自从	-12848
来临	-12849
rite	-12850
▁Iss	-12851
▁none	-12852
现将	-12853
薄膜	-12854
观赏	-12855
阻力	-12856
音响	-12857
的大型	-12858
▁LLC	-12859
anned	-12860
▁stim	-12861
打出	-12862
服用	-12863
OSS	-12864
Pad	-12865
▁Non	-12866
intend	-12867
公积金	-12868
奥运会	-12869
条件的	-12870
oken	-12871
▁Sat	-12872
▁responded	-12873
图形	-12874
极限	-12875
▁salary	-12876
篇文章	-12877
neys	-12878
▁Sav	-12879
▁chat	-12880
▁phen	-12881
塑胶	-12882
alo	-12883
▁initiatives	-12884
对决	-12885
溶液	-12886
诞生	-12887
说是	-12888
▁newspaper	-12889
▁introduction	-12890
Ge	-12891
高档	-12892
igate	-12893
▁beds	-12894
rating	-12895
▁rh	-12896
极大的	-12897
场均	-12898
rage	-12899
ulpt	-12900
▁behalf	-12901
istration	-12902
▁grateful	-12903
一分	-12904
丙烯	-12905
坚定	-12906
企业在	-12907
SO	-12908
家乡	-12909
tle	-12910
一等奖	-12911
复古	-12912
大奖	-12913
较好	-12914
阻燃	-12915
的了解	-12916
pson	-12917
▁Kar	-12918
丰田	-12919
动员	-12920
听取	-12921
最初	-12922
石化	-12923
很多人都	-12924
▁hang	-12925
iances	-12926
▁struggle	-12927
▁disappoint	-12928
CI	-12929
牛皮	-12930
至上	-12931
▁Ox	-12932
▁Cro	-12933
▁Method	-12934
游玩	-12935
科创	-12936
正常的	-12937
ingu	-12938
▁entirely	-12939
书面	-12940
▁根据	-12941
关注的	-12942
icial	-12943
onsin	-12944
▁exposure	-12945
▁interpret	-12946
FO	-12947
尤文	-12948
解除	-12949
逾期	-12950
遗产	-12951
首个	-12952
等情况	-12953
扶持	-12954
▁Another	-12955
ERE	-12956
aug	-12957
能力强	-12958
▁Barb	-12959
anth	-12960
▁Camb	-12961
Review	-12962
▁Authority	-12963
外卖	-12964
机型	-12965
职场	-12966
▁---	-12967
▁millions	-12968
▁searching	-12969
Mod	-12970
取决于	-12971
国家的	-12972
▁meets	-12973
▁mouth	-12974
isconsin	-12975
出产	-12976
的多	-12977
很重要	-12978
ouri	-12979
▁Henry	-12980
▁Action	-12981
▁insights	-12982
测定	-12983
调度	-12984
▁NEW	-12985
▁Keep	-12986
▁personnel	-12987
:|	-12988
前行	-12989
得了	-12990
而已	-12991
iece	-12992
▁regions	-12993
▁producer	-12994
Gl	-12995
无人机	-12996
还是要	-12997
首先要	-12998
咨询热线	-12999
Email	-13000
的双	-13001
网格	-13002
,[[	-13003
Act	-13004
的一部分	-13005
▁solve	-13006
▁symbol	-13007
宣讲	-13008
最强	-13009
骨干	-13010
phia	-13011
▁Ball	-13012
▁abuse	-13013
的有	-13014
砂浆	-13015
与其他	-13016
▁vend	-13017
安静	-13018
追究	-13019
whel	-13020
FR	-13021
的情	-13022
des	-13023
▁Ah	-13024
的设备	-13025
▁sole	-13026
▁causing	-13027
一一	-13028
冲洗	-13029
打卡	-13030
的通知	-13031
asant	-13032
ocket	-13033
▁Month	-13034
▁Right	-13035
步伐	-13036
有所帮助	-13037
mates	-13038
inding	-13039
▁carefully	-13040
听说	-13041
痛苦	-13042
▁PA	-13043
差不多	-13044
希望能	-13045
的活动	-13046
▁subsequ	-13047
哥哥	-13048
头部	-13049
隔断	-13050
及相关	-13051
威尼斯	-13052
就诊	-13053
德里	-13054
时长	-13055
▁Those	-13056
ruption	-13057
▁southern	-13058
带你	-13059
钢材	-13060
是目前	-13061
▁Trail	-13062
▁teaspoon	-13063
▁Jam	-13064
▁assum	-13065
▁olive	-13066
▁childhood	-13067
你是	-13068
方可	-13069
▁vice	-13070
共建	-13071
热量	-13072
的车	-13073
终身	-13074
风口	-13075
饱满	-13076
lah	-13077
▁Gi	-13078
▁sq	-13079
ounded	-13080
Rem	-13081
▁Os	-13082
本场比赛	-13083
之上	-13084
▁af	-13085
区分	-13086
楼梯	-13087
此类	-13088
猫咪	-13089
讲究	-13090
ESS	-13091
这时候	-13092
▁Diego	-13093
▁simpl	-13094
中级	-13095
心脏	-13096
怪物	-13097
榜单	-13098
▁forever	-13099
================	-13100
水管	-13101
的消息	-13102
会展	-13103
收缩	-13104
的食物	-13105
▁semi	-13106
▁silver	-13107
▁Funeral	-13108
itionally	-13109
如果没有	-13110
▁controvers	-13111
买入	-13112
智能手机	-13113
▁coin	-13114
▁attrib	-13115
'.	-13116
挂牌	-13117
跟随	-13118
世界的	-13119
时代的	-13120
▁invent	-13121
不必	-13122
拍卖	-13123
教育局	-13124
的材料	-13125
排列	-13126
▁Prim	-13127
▁till	-13128
inking	-13129
▁talked	-13130
▁destroy	-13131
▁celebrated	-13132
增多	-13133
太原	-13134
托盘	-13135
半导体	-13136
inated	-13137
▁Histor	-13138
▁motion	-13139
与我们	-13140
▁payments	-13141
参会	-13142
▁我们	-13143
ydney	-13144
▁dreams	-13145
外墙	-13146
宝石	-13147
接入	-13148
Web	-13149
adelphia	-13150
▁resulting	-13151
前锋	-13152
看完	-13153
过大	-13154
CEO	-13155
进出口	-13156
▁pace	-13157
▁browser	-13158
▁seriously	-13159
Em	-13160
严谨	-13161
男性	-13162
职能	-13163
轻易	-13164
▁Map	-13165
▁analyst	-13166
▁designs	-13167
ao	-13168
文旅	-13169
Pat	-13170
Current	-13171
ulating	-13172
▁surprised	-13173
▁consistent	-13174
方针	-13175
水量	-13176
分享到	-13177
odge	-13178
▁riv	-13179
▁~	-13180
制动	-13181
▁欢迎	-13182
小伙伴们	-13183
▁embr	-13184
十三	-13185
恐怖	-13186
▁Look	-13187
▁funny	-13188
▁tracks	-13189
害怕	-13190
特斯拉	-13191
elle	-13192
eding	-13193
▁duty	-13194
orable	-13195
unicipal	-13196
▁capture	-13197
低价	-13198
排气	-13199
▁Wi	-13200
Watch	-13201
地震	-13202
改装	-13203
Red	-13204
万美元	-13205
▁Bern	-13206
白癜风患者	-13207
▁gained	-13208
外表	-13209
大棚	-13210
条款	-13211
督促	-13212
game	-13213
▁king	-13214
▁split	-13215
▁specialist	-13216
三维	-13217
欧盟	-13218
两个人	-13219
效果图	-13220
etch	-13221
态势	-13222
生动	-13223
这一次	-13224
▁Him	-13225
▁Psych	-13226
▁upload	-13227
Cal	-13228
▁Cra	-13229
▁seeds	-13230
▁furniture	-13231
一层	-13232
拉伸	-13233
煤炭	-13234
用人	-13235
Sec	-13236
球队的	-13237
▁cooked	-13238
%-	-13239
泄漏	-13240
切尔西	-13241
疾病的	-13242
earing	-13243
▁Jordan	-13244
▁driven	-13245
MO	-13246
发光	-13247
▁prove	-13248
▁swimming	-13249
▁donations	-13250
▁increases	-13251
应力	-13252
抛光	-13253
是没有	-13254
▁Raj	-13255
▁forth	-13256
▁Atlanta	-13257
▁Features	-13258
买家	-13259
组成的	-13260
让他们	-13261
Author	-13262
▁clubs	-13263
▁reward	-13264
▁survived	-13265
Ingredients	-13266
零食	-13267
iary	-13268
▁Sep	-13269
▁employer	-13270
口语	-13271
支队	-13272
直销	-13273
禁毒	-13274
西甲	-13275
音频	-13276
速度快	-13277
ickets	-13278
设备有限公司	-13279
▁Dallas	-13280
▁Reading	-13281
▁studying	-13282
激动	-13283
电网	-13284
记住	-13285
下一个	-13286
▁Bry	-13287
▁Jay	-13288
严格按照	-13289
illiant	-13290
▁recognition	-13291
播出	-13292
选择的	-13293
▁elimin	-13294
American	-13295
不含	-13296
入住	-13297
外贸	-13298
巴巴	-13299
硅胶	-13300
色调	-13301
菜单	-13302
iour	-13303
▁Anton	-13304
▁frust	-13305
所得	-13306
按时	-13307
水性	-13308
谈判	-13309
远远	-13310
▁opens	-13311
Of	-13312
压机	-13313
大脑	-13314
载体	-13315
在北京	-13316
热水器	-13317
iral	-13318
▁contrast	-13319
iden	-13320
teen	-13321
交通事故	-13322
ritten	-13323
▁Wales	-13324
▁subjects	-13325
▁intelligence	-13326
激烈的	-13327
▁territ	-13328
▁combine	-13329
中午	-13330
片区	-13331
▁tag	-13332
▁Greg	-13333
▁Kansas	-13334
sylvania	-13335
版的	-13336
质疑	-13337
了一下	-13338
低压	-13339
在上	-13340
格兰	-13341
oln	-13342
设计和	-13343
Next	-13344
▁Has	-13345
▁Sarah	-13346
奥迪	-13347
走出	-13348
PDF	-13349
||||	-13350
▁Drive	-13351
▁blocks	-13352
▁organic	-13353
排出	-13354
的健康	-13355
igin	-13356
乡村振兴	-13357
▁expensive	-13358
游乐	-13359
▁hyp	-13360
全网	-13361
汇聚	-13362
akh	-13363
▁LA	-13364
将成为	-13365
的一切	-13366
人才培养	-13367
开门	-13368
恒温	-13369
星级	-13370
签到	-13371
湖北省	-13372
师范大学	-13373
▁Band	-13374
▁staying	-13375
在校	-13376
大理	-13377
Share	-13378
▁saved	-13379
▁Property	-13380
”;	-13381
传达	-13382
医治	-13383
神器	-13384
imensions	-13385
答题	-13386
行走	-13387
▁mob	-13388
▁deck	-13389
▁liber	-13390
▁intent	-13391
.;	-13392
拜仁	-13393
▁Ak	-13394
▁sending	-13395
FT	-13396
之地	-13397
大门	-13398
源于	-13399
连胜	-13400
Lat	-13401
oore	-13402
▁stages	-13403
▁improvements	-13404
________________	-13405
之内	-13406
热烈	-13407
▁Affairs	-13408
▁traveling	-13409
HR	-13410
前三	-13411
客戶	-13412
并与	-13413
转速	-13414
athered	-13415
省市	-13416
翡翠	-13417
▁Tal	-13418
还是比较	-13419
▁temperatures	-13420
NO	-13421
外壳	-13422
▁rum	-13423
▁Seattle	-13424
▁suggestions	-13425
进取	-13426
部队	-13427
中心的	-13428
上演	-13429
hop	-13430
这里的	-13431
▁acid	-13432
▁solo	-13433
▁arrival	-13434
▁Lic	-13435
管理人员	-13436
▁grab	-13437
roduction	-13438
也被	-13439
保洁	-13440
在进行	-13441
的作品	-13442
Full	-13443
▁dough	-13444
boy	-13445
压缩机	-13446
▁Bol	-13447
王者荣耀	-13448
▁fundra	-13449
▁shortly	-13450
不容	-13451
家属	-13452
ori	-13453
学生们	-13454
关注我们	-13455
▁Square	-13456
▁!	-13457
流出	-13458
▁scr	-13459
▁divid	-13460
▁recru	-13461
▁flexible	-13462
▁literature	-13463
刑事	-13464
收盘	-13465
跌幅	-13466
这是一	-13467
that	-13468
▁Iraq	-13469
▁scores	-13470
▁ticket	-13471
当初	-13472
▁Po	-13473
也不能	-13474
加拿大	-13475
转载请注明	-13476
按摩	-13477
越好	-13478
是多少	-13479
的关系	-13480
▁Corn	-13481
▁element	-13482
标记	-13483
烟台	-13484
▁falling	-13485
▁winners	-13486
灯具	-13487
sk	-13488
滤芯	-13489
如果不	-13490
▁Columbia	-13491
三级	-13492
个体	-13493
car	-13494
只为	-13495
这样才能	-13496
TI	-13497
料的	-13498
哪家好	-13499
▁cust	-13500
▁suggests	-13501
锁定	-13502
检察院	-13503
都非常	-13504
inent	-13505
▁knock	-13506
▁moder	-13507
ighters	-13508
▁Consult	-13509
▁curriculum	-13510
将是	-13511
ira	-13512
本身的	-13513
▁slowly	-13514
yo	-13515
标注	-13516
▁CN	-13517
▁lin	-13518
▁arrive	-13519
▁distinct	-13520
▁holidays	-13521
我和	-13522
必不可	-13523
紫外线	-13524
words	-13525
▁titles	-13526
▁actress	-13527
主帅	-13528
纳米	-13529
Feb	-13530
打电话	-13531
▁adj	-13532
不断提高	-13533
▁当前位置	-13534
▁Books	-13535
▁Express	-13536
ikes	-13537
公司简介	-13538
系列产品	-13539
▁Iowa	-13540
▁lemon	-13541
岁月	-13542
会影响	-13543
你知道	-13544
版权声明	-13545
▁invite	-13546
出资	-13547
elled	-13548
▁Grant	-13549
▁Travel	-13550
▁reaction	-13551
▁realized	-13552
hu	-13553
里斯	-13554
rives	-13555
▁alive	-13556
▁extract	-13557
道的	-13558
week	-13559
▁taxes	-13560
▁recognize	-13561
前提	-13562
▁Android	-13563
▁evaluation	-13564
批量	-13565
作为一个	-13566
▁Disney	-13567
▁struggling	-13568
?!	-13569
尴尬	-13570
必需	-13571
数十	-13572
温泉	-13573
考点	-13574
高兴	-13575
▁Pa	-13576
▁lie	-13577
中小企业	-13578
▁aimed	-13579
买的	-13580
特朗	-13581
▁por	-13582
HT	-13583
不止	-13584
党的	-13585
iac	-13586
迎来了	-13587
▁unex	-13588
▁Cloud	-13589
▁displ	-13590
ocument	-13591
▁donation	-13592
▁residence	-13593
尼亚	-13594
▁Ba	-13595
开发商	-13596
快速的	-13597
olar	-13598
▁Matthew	-13599
开花	-13600
Good	-13601
人民法院	-13602
千万不要	-13603
演唱	-13604
工作者	-13605
▁uncertain	-13606
极其	-13607
水电	-13608
▁raising	-13609
复杂的	-13610
Trans	-13611
▁Conc	-13612
▁narr	-13613
▁Oregon	-13614
清华	-13615
▁tum	-13616
▁substant	-13617
间隔	-13618
首要	-13619
个小时	-13620
High	-13621
gree	-13622
......”	-13623
▁Attorney	-13624
大发	-13625
▁SP	-13626
▁dad	-13627
erving	-13628
▁duties	-13629
▁founder	-13630
探测	-13631
极速	-13632
aza	-13633
war	-13634
不仅是	-13635
▁Roll	-13636
abetes	-13637
▁deadline	-13638
变革	-13639
叫做	-13640
掉了	-13641
建筑物	-13642
Friday	-13643
▁liked	-13644
港口	-13645
▁Cab	-13646
rowse	-13647
▁oppon	-13648
▁Afghan	-13649
▁sectors	-13650
两天	-13651
写字	-13652
友谊	-13653
日语	-13654
等多个	-13655
roke	-13656
rency	-13657
▁spacious	-13658
出台	-13659
一开始	-13660
▁Tony	-13661
▁union	-13662
▁withd	-13663
▁Comments	-13664
不应	-13665
收纳	-13666
通告	-13667
有机会	-13668
▁humans	-13669
▁routine	-13670
召唤	-13671
稍微	-13672
icted	-13673
▁fest	-13674
朝阳	-13675
糖尿	-13676
量身	-13677
阿尔	-13678
▁Ont	-13679
亚马	-13680
爷爷	-13681
中小学	-13682
合并	-13683
条例	-13684
Her	-13685
inder	-13686
▁Lady	-13687
余额	-13688
便民	-13689
Hel	-13690
lined	-13691
range	-13692
▁talented	-13693
▁discussions	-13694
mi	-13695
定时	-13696
代理商	-13697
的中国	-13698
▁lies	-13699
▁Jason	-13700
▁writes	-13701
已被	-13702
暴露	-13703
近视	-13704
和管理	-13705
rible	-13706
▁Sche	-13707
ousing	-13708
▁authent	-13709
救助	-13710
演示	-13711
货源	-13712
axy	-13713
▁id	-13714
我们需要	-13715
▁cable	-13716
额外	-13717
▁Hay	-13718
▁agents	-13719
▁developers	-13720
▁electrical	-13721
初级	-13722
▁CC	-13723
也需要	-13724
就没有	-13725
▁stations	-13726
▁Wisconsin	-13727
为期	-13728
CBA	-13729
日消息	-13730
▁Harry	-13731
▁requested	-13732
十四	-13733
弯曲	-13734
警示	-13735
xiety	-13736
▁wave	-13737
▁cooperation	-13738
预订	-13739
重庆市	-13740
bell	-13741
▁aged	-13742
石墨	-13743
ervice	-13744
▁widely	-13745
▁protest	-13746
▁floors	-13747
▁retired	-13748
▁completion	-13749
FS	-13750
抵达	-13751
档次	-13752
abama	-13753
▁Link	-13754
▁votes	-13755
▁protocol	-13756
立方	-13757
Net	-13758
oen	-13759
之前的	-13760
第二次	-13761
lied	-13762
不仅可以	-13763
▁kinds	-13764
▁worship	-13765
▁baseball	-13766
一把	-13767
一轮	-13768
就被	-13769
ugh	-13770
▁catal	-13771
BL	-13772
上手	-13773
PPO	-13774
▁kil	-13775
▁reput	-13776
▁passionate	-13777
误差	-13778
Out	-13779
适当的	-13780
▁Rog	-13781
过程中的	-13782
客人	-13783
早日	-13784
市场需求	-13785
▁Patrick	-13786
▁brothers	-13787
▁有	-13788
加坡	-13789
精灵	-13790
缓慢	-13791
建设的	-13792
emet	-13793
截至目前	-13794
▁Should	-13795
▁succeed	-13796
Log	-13797
aya	-13798
划分	-13799
螺杆	-13800
omy	-13801
▁ec	-13802
环境下	-13803
的一致	-13804
month	-13805
▁deaths	-13806
Fr	-13807
inter	-13808
▁clicking	-13809
FP	-13810
店内	-13811
安装在	-13812
▁trig	-13813
日常生活中	-13814
▁infection	-13815
ika	-13816
iate	-13817
▁Chapter	-13818
▁constant	-13819
▁maintaining	-13820
▁Pennsylvania	-13821
常州	-13822
low	-13823
正规的	-13824
▁Dead	-13825
▁Mess	-13826
首选	-13827
made	-13828
贯彻落实	-13829
▁accuracy	-13830
▁exploring	-13831
▁increasingly	-13832
▁watched	-13833
周一	-13834
umni	-13835
QL	-13836
雨水	-13837
▁Sem	-13838
▁bow	-13839
Start	-13840
▁resistance	-13841
也为	-13842
房价	-13843
整齐	-13844
在网上	-13845
host	-13846
▁yield	-13847
▁generated	-13848
▁accommodation	-13849
▁lawyer	-13850
▁promise	-13851
单纯	-13852
的客户	-13853
itled	-13854
wered	-13855
▁hole	-13856
▁equipped	-13857
▁championship	-13858
字体	-13859
耳机	-13860
铺设	-13861
Back	-13862
▁hosts	-13863
墙体	-13864
大街	-13865
届时	-13866
更改	-13867
货运	-13868
▁Bowl	-13869
▁crazy	-13870
▁Limited	-13871
▁chances	-13872
企业文化	-13873
详细介绍	-13874
▁Publ	-13875
▁cookies	-13876
▁perfectly	-13877
光学	-13878
全场	-13879
路灯	-13880
二氧化	-13881
每一次	-13882
▁gene	-13883
▁vast	-13884
▁excess	-13885
▁carrying	-13886
余名	-13887
▁sees	-13888
▁Democratic	-13889
样式	-13890
葫芦	-13891
减少了	-13892
的风险	-13893
Sept	-13894
▁vegetables	-13895
oa	-13896
抗疫	-13897
热度	-13898
等着	-13899
REE	-13900
打造的	-13901
▁flag	-13902
▁Veter	-13903
原件	-13904
周知	-13905
忽略	-13906
注射	-13907
著作	-13908
福建省	-13909
注册资本	-13910
也让	-13911
张家	-13912
我会	-13913
雄厚	-13914
Dav	-13915
aning	-13916
onder	-13917
Tra	-13918
给孩子	-13919
▁venue	-13920
▁Prince	-13921
▁investigate	-13922
GM	-13923
体重	-13924
全区	-13925
就开始	-13926
▁acres	-13927
▁empty	-13928
▁coaching	-13929
▁Supp	-13930
▁vill	-13931
▁Muslim	-13932
冷库	-13933
山水	-13934
pir	-13935
为基础	-13936
国家和	-13937
行业中	-13938
aire	-13939
heim	-13940
▁BBC	-13941
arming	-13942
▁remark	-13943
出战	-13944
暴雨	-13945
自带	-13946
▁era	-13947
操作简单	-13948
emble	-13949
▁Small	-13950
▁lucky	-13951
子里	-13952
海关	-13953
火车	-13954
esh	-13955
▁tie	-13956
▁narrow	-13957
▁somewhere	-13958
奖项	-13959
尽情	-13960
rip	-13961
请及时	-13962
▁reader	-13963
▁creates	-13964
▁warning	-13965
▁criteria	-13966
▁component	-13967
拼接	-13968
的理念	-13969
科学院	-13970
▁visits	-13971
▁operational	-13972
心灵	-13973
搜狗	-13974
洗涤	-13975
身影	-13976
很强的	-13977
信息技术	-13978
incoln	-13979
▁Sydney	-13980
做得	-13981
光电	-13982
和高	-13983
Even	-13984
cons	-13985
umer	-13986
医疗器械	-13987
riers	-13988
Before	-13989
▁Study	-13990
▁capable	-13991
▁entering	-13992
作风	-13993
友好	-13994
質量	-13995
Det	-13996
的小说	-13997
▁stuck	-13998
▁Philipp	-13999
▁situated	-14000
悬浮	-14001
本场	-14002
给出	-14003
▁Sym	-14004
告诉记者	-14005
▁Come	-14006
▁adds	-14007
▁fairly	-14008
▁samples	-14009
▁accomplish	-14010
姑娘	-14011
▁今天	-14012
▁III	-14013
bound	-14014
ivalent	-14015
▁Father	-14016
▁Process	-14017
▁photographs	-14018
失误	-14019
梦幻	-14020
采访时	-14021
大家可以	-14022
这款游戏	-14023
▁designer	-14024
铸铁	-14025
特朗普	-14026
▁Cancer	-14027
▁Asian	-14028
▁concrete	-14029
iah	-14030
可用于	-14031
School	-14032
iginal	-14033
坐落	-14034
年限	-14035
打磨	-14036
的各种	-14037
▁bes	-14038
▁tiny	-14039
winning	-14040
▁sought	-14041
▁transp	-14042
新春	-14043
dale	-14044
享有	-14045
变动	-14046
闯关	-14047
新媒体	-14048
roit	-14049
▁wra	-14050
▁tiss	-14051
▁neuro	-14052
▁concepts	-14053
你要	-14054
标的	-14055
不断提升	-14056
ifies	-14057
▁default	-14058
▁temporary	-14059
医用	-14060
名片	-14061
编码	-14062
亚马逊	-14063
Star	-14064
high	-14065
oper	-14066
▁Bad	-14067
▁Nic	-14068
原作者所有	-14069
lahoma	-14070
▁Hills	-14071
UC	-14072
一大	-14073
影院	-14074
橱柜	-14075
被告	-14076
了不少	-14077
▁Ath	-14078
▁Chap	-14079
▁heads	-14080
在看	-14081
塞尔	-14082
严格的	-14083
▁Ven	-14084
工程施工	-14085
▁filling	-14086
▁Creative	-14087
▁categories	-14088
平凡	-14089
bing	-14090
▁Dam	-14091
▁focusing	-14092
▁stunning	-14093
RL	-14094
风光	-14095
oosing	-14096
▁branch	-14097
▁deploy	-14098
▁represented	-14099
取代	-14100
配有	-14101
更多精彩	-14102
▁Chem	-14103
bourne	-14104
▁ultimately	-14105
▁characteristics	-14106
跑步	-14107
▁AT	-14108
▁Rail	-14109
▁Rand	-14110
DN	-14111
▁Hold	-14112
▁overwhel	-14113
▁reduction	-14114
天赋	-14115
致富	-14116
货车	-14117
面包	-14118
▁mig	-14119
acter	-14120
opher	-14121
▁diseases	-14122
▁lifestyle	-14123
营收	-14124
▁MS	-14125
Each	-14126
▁cuts	-14127
vision	-14128
▁Excell	-14129
▁junior	-14130
旁边	-14131
非洲	-14132
大规模	-14133
▁hidden	-14134
▁singing	-14135
▁secondary	-14136
▁connections	-14137
GE	-14138
米的	-14139
十分的	-14140
营业收入	-14141
▁cancell	-14142
▁Planning	-14143
:"	-14144
存款	-14145
气动	-14146
能耗	-14147
▁coal	-14148
▁Sales	-14149
▁versions	-14150
一会	-14151
也都	-14152
文献	-14153
▁Opt	-14154
▁Sab	-14155
▁fitness	-14156
▁instance	-14157
▁indicated	-14158
商铺	-14159
水晶	-14160
的态度	-14161
Home	-14162
责任编辑	-14163
▁speaker	-14164
▁regulatory	-14165
功能的	-14166
▁cul	-14167
▁asset	-14168
▁lighting	-14169
▁Copyright	-14170
▁contained	-14171
▁apparently	-14172
推行	-14173
▁mac	-14174
eling	-14175
ellect	-14176
▁nights	-14177
▁Philadelphia	-14178
向前	-14179
▁opinions	-14180
书写	-14181
第八	-14182
薪资	-14183
**“	-14184
was	-14185
多元化	-14186
是一件	-14187
cers	-14188
▁Deb	-14189
otton	-14190
Oh	-14191
ouch	-14192
▁Saint	-14193
▁Albert	-14194
▁guilty	-14195
▁potentially	-14196
不忘	-14197
保安	-14198
商机	-14199
脚步	-14200
▁ocean	-14201
autiful	-14202
▁Assembly	-14203
▁Victoria	-14204
这条	-14205
VER	-14206
▁Cru	-14207
▁outcome	-14208
Av	-14209
邮政	-14210
▁lesson	-14211
▁feelings	-14212
▁grandchildren	-14213
慈善	-14214
apore	-14215
▁granted	-14216
吉祥	-14217
帮忙	-14218
企业和	-14219
▁Did	-14220
March	-14221
Under	-14222
isdom	-14223
▁Lewis	-14224
▁stable	-14225
▁trailer	-14226
People	-14227
angers	-14228
▁pilot	-14229
▁implemented	-14230
兰特	-14231
厕所	-14232
Use	-14233
oly	-14234
了解了	-14235
ureau	-14236
,,	-14237
异议	-14238
当今	-14239
招募	-14240
虚假	-14241
见面	-14242
▁Instead	-14243
▁€	-14244
开局	-14245
医疗机构	-14246
▁Capt	-14247
商用	-14248
自学	-14249
茅台	-14250
已经在	-14251
gorith	-14252
▁Cooper	-14253
▁developments	-14254
▁Environmental	-14255
▁representative	-14256
必定	-14257
早餐	-14258
▁ft	-14259
oven	-14260
▁tip	-14261
pection	-14262
可靠的	-14263
等你来	-14264
▁hat	-14265
ighth	-14266
▁Further	-14267
▁initially	-14268
▁和	-14269
先锋	-14270
各国	-14271
导热	-14272
星座	-14273
海上	-14274
象征	-14275
▁Winter	-14276
▁assault	-14277
▁engaging	-14278
▁languages	-14279
几率	-14280
拆卸	-14281
目的是	-14282
plete	-14283
▁Editor	-14284
▁高	-14285
新人	-14286
有用	-14287
正面	-14288
订阅	-14289
发生的	-14290
管理和	-14291
▁NAS	-14292
▁Kelly	-14293
▁demonstrate	-14294
关怀	-14295
ami	-14296
bel	-14297
二等奖	-14298
otte	-14299
amics	-14300
▁Need	-14301
▁giant	-14302
▁containing	-14303
▁convenient	-14304
▁surprising	-14305
微笑	-14306
极具	-14307
nie	-14308
为我们	-14309
▁stakeholders	-14310
估值	-14311
慰问	-14312
海口	-14313
▁SC	-14314
▁Pit	-14315
相关负责人	-14316
▁suspend	-14317
帮你	-14318
快三	-14319
豆腐	-14320
顶部	-14321
中医药	-14322
耐高温	-14323
itution	-14324
ennessee	-14325
▁centers	-14326
负载	-14327
````	-14328
▁Whether	-14329
▁writers	-14330
体质	-14331
升高	-14332
太平	-14333
长大	-14334
已经是	-14335
给自己	-14336
超声波	-14337
▁drawn	-14338
▁nuclear	-14339
党建	-14340
实训	-14341
▁Change	-14342
▁statistics	-14343
新产品	-14344
还是很	-14345
▁pup	-14346
充分利用	-14347
▁communicate	-14348
批次	-14349
认同	-14350
葡萄酒	-14351
组成部分	-14352
oming	-14353
▁Very	-14354
▁fraud	-14355
▁reveal	-14356
▁functional	-14357
rong	-14358
▁impossible	-14359
一部	-14360
一项	-14361
买了	-14362
报讯	-14363
效力	-14364
纪律	-14365
公正	-14366
事务所	-14367
是通过	-14368
▁rig	-14369
▁Korea	-14370
emetery	-14371
▁FA	-14372
▁Clark	-14373
▁adopted	-14374
PT	-14375
站长	-14376
保证了	-14377
公务员	-14378
宾馆	-14379
杀菌	-14380
的上	-14381
iro	-14382
ez	-14383
回事	-14384
扩张	-14385
纽约	-14386
▁Bat	-14387
▁Chairman	-14388
▁destination	-14389
不懂	-14390
抓好	-14391
间隙	-14392
ima	-14393
自媒体	-14394
请联系我们	-14395
承接	-14396
谷歌	-14397
靠近	-14398
主要的	-14399
湖南省	-14400
作者本人	-14401
温州	-14402
温柔	-14403
上赛季	-14404
Free	-14405
April	-14406
▁illegal	-14407
▁Independ	-14408
指纹	-14409
罗马	-14410
医院的	-14411
希望对	-14412
的手机	-14413
itis	-14414
chers	-14415
▁Mater	-14416
▁vacation	-14417
EF	-14418
光源	-14419
可惜	-14420
艰难	-14421
产业园	-14422
来自于	-14423
医护人员	-14424
最新章节	-14425
▁Insurance	-14426
▁Eth	-14427
▁Enjoy	-14428
▁clothes	-14429
Meanwhile	-14430
▁normally	-14431
助手	-14432
车内	-14433
项目建设	-14434
▁neighb	-14435
▁chairman	-14436
▁incorpor	-14437
丢失	-14438
的人生	-14439
▁Pict	-14440
▁Viet	-14441
▁orient	-14442
▁scenes	-14443
环比	-14444
的两	-14445
花卉	-14446
▁AC	-14447
▁voc	-14448
▁myst	-14449
iatric	-14450
ussion	-14451
▁Hollywood	-14452
▁platforms	-14453
兼容	-14454
感和	-14455
找到了	-14456
此次活动	-14457
▁Parl	-14458
▁Friends	-14459
不便	-14460
利息	-14461
我也	-14462
随之	-14463
增强了	-14464
minute	-14465
▁hospitals	-14466
总之	-14467
桌面	-14468
▁Lyn	-14469
▁pounds	-14470
▁Liverpool	-14471
的颜色	-14472
mann	-14473
▁batt	-14474
▁Studio	-14475
众所	-14476
体现了	-14477
Like	-14478
inet	-14479
mate	-14480
不行	-14481
打进	-14482
笔者	-14483
网讯	-14484
▁indicate	-14485
▁religion	-14486
▁institution	-14487
严峻	-14488
境内	-14489
了一场	-14490
有一种	-14491
▁raw	-14492
▁stayed	-14493
万博	-14494
可供	-14495
在我	-14496
手册	-14497
vas	-14498
▁spark	-14499
珍惜	-14500
赋能	-14501
马拉	-14502
ibl	-14503
▁voted	-14504
▁strongly	-14505
▁Sometimes	-14506
▁instruction	-14507
为其	-14508
桃花	-14509
限时	-14510
▁gap	-14511
▁Chelsea	-14512
杜绝	-14513
会不会	-14514
只不过	-14515
在线留言	-14516
▁playoff	-14517
ho	-14518
选拔	-14519
能不能	-14520
▁acts	-14521
低碳	-14522
固体	-14523
irk	-14524
▁whilst	-14525
▁Download	-14526
▁electricity	-14527
▁participating	-14528
相关信息	-14529
安裝	-14530
不断地	-14531
充满了	-14532
▁Cut	-14533
ourse	-14534
▁unus	-14535
▁replacement	-14536
洛阳	-14537
时间和	-14538
▁Mach	-14539
沉浸	-14540
的标准	-14541
产品展示	-14542
▁Anderson	-14543
▁interactive	-14544
▁AI	-14545
制作的	-14546
alse	-14547
▁tied	-14548
▁analyt	-14549
▁websites	-14550
监会	-14551
adesh	-14552
中场	-14553
冲突	-14554
契机	-14555
精益	-14556
一直是	-14557
微信号	-14558
▁Golden	-14559
正版	-14560
登场	-14561
通车	-14562
高空	-14563
并通过	-14564
▁tweet	-14565
▁filter	-14566
▁Alabama	-14567
======	-14568
igious	-14569
▁guarantee	-14570
无忧	-14571
沃尔	-14572
相反	-14573
高科技	-14574
▁tank	-14575
▁Store	-14576
工程有限公司	-14577
▁从	-14578
下半年	-14579
iamond	-14580
▁refuge	-14581
▁employers	-14582
的速度	-14583
节假日	-14584
▁delivering	-14585
▁consideration	-14586
打印机	-14587
▁soph	-14588
▁molec	-14589
▁underst	-14590
仿真	-14591
动手	-14592
航班	-14593
全世界	-14594
新材料	-14595
银行卡	-14596
同样的	-14597
▁mic	-14598
▁Ross	-14599
▁arms	-14600
owered	-14601
▁Dream	-14602
▁Meeting	-14603
▁northern	-14604
▁strengthen	-14605
最美	-14606
物体	-14607
▁AS	-14608
▁tender	-14609
脱落	-14610
震撼	-14611
不合格	-14612
▁Case	-14613
intage	-14614
▁Events	-14615
eneration	-14616
焦虑	-14617
的大小	-14618
▁Imm	-14619
break	-14620
修建	-14621
古典	-14622
通关	-14623
olly	-14624
▁gifts	-14625
▁responses	-14626
时要	-14627
木质	-14628
积极参与	-14629
总投资	-14630
的合作	-14631
客户提供	-14632
▁contracts	-14633
▁defensive	-14634
香味	-14635
izer	-14636
▁Missouri	-14637
ais	-14638
分辨率	-14639
▁Sky	-14640
可以使用	-14641
issions	-14642
实质	-14643
很是	-14644
应聘	-14645
stal	-14646
到期	-14647
▁点击	-14648
市面上	-14649
又能	-14650
国足	-14651
应在	-14652
等于	-14653
东莞市	-14654
的支持	-14655
研究中心	-14656
English	-14657
orgeous	-14658
▁golden	-14659
供货	-14660
就医	-14661
活塞	-14662
颁奖	-14663
▁Gas	-14664
▁Mom	-14665
▁Break	-14666
▁Greek	-14667
▁gathered	-14668
▁involves	-14669
柔性	-14670
通過	-14671
风情	-14672
可分为	-14673
可爱的	-14674
在我们	-14675
▁synt	-14676
▁equity	-14677
品类	-14678
地说	-14679
达人	-14680
表面的	-14681
▁Indiana	-14682
Day	-14683
效果好	-14684
disc	-14685
▁emerging	-14686
▁assigned	-14687
华夏	-14688
般的	-14689
ums	-14690
公布了	-14691
常态化	-14692
的性能	-14693
和大家	-14694
▁sculpt	-14695
▁brilliant	-14696
感染者	-14697
isms	-14698
宣传活动	-14699
至关	-14700
ategory	-14701
▁flying	-14702
光明	-14703
周岁	-14704
填报	-14705
open	-14706
▁PhD	-14707
▁pitc	-14708
▁root	-14709
inating	-14710
定点	-14711
操纵	-14712
皇家	-14713
苏宁	-14714
的教学	-14715
众所周知	-14716
ounce	-14717
Monday	-14718
▁compr	-14719
▁noise	-14720
▁proof	-14721
▁compos	-14722
丈夫	-14723
依照	-14724
手法	-14725
芝麻	-14726
lude	-14727
organ	-14728
▁hydro	-14729
▁Brother	-14730
▁reception	-14731
两者	-14732
约定	-14733
行業	-14734
国家队	-14735
让用户	-14736
▁governor	-14737
去做	-14738
早在	-14739
查处	-14740
用量	-14741
禁区	-14742
赛后	-14743
防潮	-14744
颁发	-14745
▁ET	-14746
▁HR	-14747
副院长	-14748
家长们	-14749
Take	-14750
▁Oil	-14751
▁nic	-14752
县城	-14753
商贸	-14754
一起来看看吧	-14755
raction	-14756
▁compensation	-14757
下游	-14758
维奇	-14759
脱水	-14760
赞同	-14761
page	-14762
▁stamp	-14763
▁Sheriff	-14764
侧面	-14765
brid	-14766
▁Sant	-14767
▁版权所有	-14768
▁Unit	-14769
▁inner	-14770
▁universities	-14771
双向	-14772
深深	-14773
相同的	-14774
▁math	-14775
▁obviously	-14776
多吃	-14777
都没	-14778
为中国	-14779
新赛季	-14780
舒适的	-14781
▁Dave	-14782
▁Khan	-14783
encing	-14784
从此	-14785
决心	-14786
使用了	-14787
▁enem	-14788
ribution	-14789
展现了	-14790
aired	-14791
bsite	-14792
▁Anthony	-14793
不承担	-14794
网站地图	-14795
▁Hart	-14796
▁Pack	-14797
▁producing	-14798
▁guaranteed	-14799
改编	-14800
红外	-14801
看到的	-14802
making	-14803
▁democr	-14804
▁representatives	-14805
老公	-14806
很简单	-14807
销售额	-14808
overty	-14809
ushing	-14810
▁preced	-14811
resident	-14812
无奈	-14813
时段	-14814
未知	-14815
越南	-14816
金牌	-14817
Cent	-14818
ints	-14819
iform	-14820
▁Latin	-14821
▁acquired	-14822
La	-14823
正好	-14824
看的	-14825
ourt	-14826
▁Share	-14827
▁sections	-14828
▁exclusive	-14829
hr	-14830
一生	-14831
是国内	-14832
oval	-14833
▁obst	-14834
悬挂	-14835
降雨	-14836
▁AP	-14837
▁Core	-14838
ding	-14839
onic	-14840
▁Which	-14841
▁comedy	-14842
▁dishes	-14843
和小	-14844
是从	-14845
病因	-14846
表彰	-14847
▁Cand	-14848
▁Again	-14849
▁lists	-14850
▁Kitchen	-14851
南通	-14852
热闹	-14853
unes	-14854
▁gent	-14855
▁北京时间	-14856
faction	-14857
▁healing	-14858
耐火	-14859
说说	-14860
she	-14861
OPPO	-14862
▁flavor	-14863
▁flower	-14864
▁desired	-14865
▁percentage	-14866
植发	-14867
金刚	-14868
▁Age	-14869
▁Norm	-14870
assion	-14871
▁sevent	-14872
业的	-14873
烹饪	-14874
oli	-14875
残疾人	-14876
senal	-14877
iology	-14878
▁domain	-14879
▁resume	-14880
▁Highway	-14881
ervations	-14882
安置	-14883
明亮	-14884
院士	-14885
岗位职责	-14886
amental	-14887
▁referred	-14888
Ac	-14889
买到	-14890
依次	-14891
ustain	-14892
▁string	-14893
▁Olympic	-14894
▁Exchange	-14895
onna	-14896
uten	-14897
一直以来	-14898
▁Select	-14899
为本	-14900
给他	-14901
opt	-14902
▁Az	-14903
gely	-14904
▁introduce	-14905
凸显	-14906
复产	-14907
木地板	-14908
▁Mission	-14909
▁Ontario	-14910
▁potatoes	-14911
天使	-14912
恶劣	-14913
较小	-14914
防盗	-14915
uther	-14916
▁certified	-14917
猪肉	-14918
光线	-14919
几次	-14920
▁poly	-14921
▁发布时间	-14922
Christ	-14923
▁warrant	-14924
录制	-14925
olen	-14926
▁smile	-14927
▁drinking	-14928
北部	-14929
奶粉	-14930
服务商	-14931
▁Things	-14932
▁Oklahoma	-14933
▁interaction	-14934
HP	-14935
定价	-14936
价值观	-14937
及时的	-14938
快速发展	-14939
▁Barn	-14940
▁beer	-14941
▁aspect	-14942
▁handling	-14943
▁preferred	-14944
滑动	-14945
风雨	-14946
▁gym	-14947
▁Marc	-14948
',	-14949
南部	-14950
更具	-14951
监理	-14952
质地	-14953
的力量	-14954
解决问题	-14955
还有一个	-14956
▁Index	-14957
Subscribe	-14958
▁hardware	-14959
伊朗	-14960
ova	-14961
▁DO	-14962
糖尿病	-14963
etts	-14964
Great	-14965
iscal	-14966
▁capabilities	-14967
人与	-14968
球的	-14969
活性炭	-14970
▁Roy	-14971
▁strange	-14972
▁amenities	-14973
ls	-14974
拉斯	-14975
源头	-14976
▁Singh	-14977
▁Industry	-14978
▁statements	-14979
上映	-14980
回落	-14981
快手	-14982
急救	-14983
▁Was	-14984
科学技术	-14985
▁sixth	-14986
▁integration	-14987
为人	-14988
你想	-14989
多样的	-14990
添加剂	-14991
日常生活	-14992
▁accord	-14993
与其	-14994
中介	-14995
加载	-14996
双手	-14997
审美	-14998
珍珠	-14999
第二个	-15000
▁Tennessee	-15001
▁Protection	-15002
▁experiencing	-15003
集合	-15004
一个个	-15005
娱乐圈	-15006
指挥部	-15007
新加坡	-15008
的整体	-15009
▁hate	-15010
▁laid	-15011
▁cancel	-15012
▁reducing	-15013
不懈	-15014
住院	-15015
erning	-15016
一声	-15017
OUR	-15018
orce	-15019
embers	-15020
▁describes	-15021
▁distributed	-15022
农药	-15023
替补	-15024
aste	-15025
enth	-15026
▁blank	-15027
▁voters	-15028
万辆	-15029
上网	-15030
稳步	-15031
自定义	-15032
BOSS	-15033
ells	-15034
工作效率	-15035
▁killing	-15036
▁refresh	-15037
刹车	-15038
按键	-15039
过高	-15040
inch	-15041
▁Emm	-15042
ointing	-15043
市委	-15044
achus	-15045
▁spots	-15046
书画	-15047
话说	-15048
erk	-15049
bits	-15050
Count	-15051
asted	-15052
▁stead	-15053
可视	-15054
比较多	-15055
anning	-15056
itative	-15057
▁defeat	-15058
▁documentation	-15059
▁摄	-15060
冰雪	-15061
执业	-15062
无比	-15063
盲目	-15064
经历了	-15065
othe	-15066
阿里巴巴	-15067
▁Allen	-15068
字母	-15069
这座	-15070
rend	-15071
▁Polit	-15072
entures	-15073
▁printed	-15074
你在	-15075
做事	-15076
吐槽	-15077
处处	-15078
气流	-15079
罚款	-15080
花生	-15081
▁ski	-15082
没有什么	-15083
▁Ocean	-15084
▁fired	-15085
▁indeed	-15086
++	-15087
UM	-15088
透气	-15089
遇见	-15090
的出现	-15091
▁Mother	-15092
▁breast	-15093
▁opposite	-15094
▁respective	-15095
对我	-15096
的规定	-15097
▁bab	-15098
▁orange	-15099
▁Article	-15100
一日	-15101
林业	-15102
转动	-15103
配色	-15104
云计算	-15105
的声音	-15106
▁ham	-15107
▁gall	-15108
▁Though	-15109
Published	-15110
▁relative	-15111
▁objective	-15112
与您	-15113
被动	-15114
足以	-15115
阿森	-15116
第二天	-15117
▁quarterback	-15118
力争	-15119
如同	-15120
暑假	-15121
水准	-15122
都被	-15123
针对性	-15124
出厂	-15125
量大	-15126
为了让	-15127
▁Las	-15128
▁Balt	-15129
▁trick	-15130
▁Questions	-15131
冷水	-15132
广泛的	-15133
raid	-15134
了自己的	-15135
▁lift	-15136
▁gallery	-15137
历经	-15138
球星	-15139
▁CR	-15140
▁Rub	-15141
▁offensive	-15142
▁Professional	-15143
时装	-15144
潮湿	-15145
olds	-15146
▁repeated	-15147
▁gathering	-15148
▁Parliament	-15149
占有	-15150
步行	-15151
演技	-15152
inf	-15153
nce	-15154
和发展	-15155
▁Silver	-15156
▁errors	-15157
▁developer	-15158
KE	-15159
中等	-15160
出入	-15161
博会	-15162
▁Wy	-15163
主持人	-15164
知识点	-15165
高效的	-15166
ellite	-15167
▁Private	-15168
▁declared	-15169
▁stronger	-15170
▁equivalent	-15171
做什么	-15172
试验机	-15173
quis	-15174
构件	-15175
钢琴	-15176
然后再	-15177
系统中	-15178
▁Kentucky	-15179
▁listings	-15180
手感	-15181
进行的	-15182
.....	-15183
以内	-15184
卡牌	-15185
日内	-15186
Cor	-15187
二手房	-15188
有许多	-15189
linary	-15190
▁prime	-15191
▁Future	-15192
▁escape	-15193
▁waters	-15194
▁Nations	-15195
大伙	-15196
实的	-15197
olk	-15198
是需要	-15199
领先的	-15200
Mich	-15201
aret	-15202
▁Own	-15203
▁definition	-15204
学费	-15205
评级	-15206
▁Tro	-15207
▁hel	-15208
冷冻	-15209
资助	-15210
的一年	-15211
这么多	-15212
传统文化	-15213
▁Language	-15214
▁interface	-15215
▁Wel	-15216
▁que	-15217
专业从事	-15218
Total	-15219
▁Sport	-15220
▁delighted	-15221
Min	-15222
enna	-15223
iffe	-15224
▁lux	-15225
各项工作	-15226
▁salad	-15227
▁signal	-15228
▁addresses	-15229
化解	-15230
研磨	-15231
了一次	-15232
最多的	-15233
笔记本	-15234
▁largely	-15235
▁accounting	-15236
▁certificate	-15237
”!	-15238
排队	-15239
月中	-15240
订购	-15241
ITY	-15242
不是很	-15243
更能	-15244
歌手	-15245
一点点	-15246
价值的	-15247
izza	-15248
▁sin	-15249
▁Heritage	-15250
买房	-15251
毫不	-15252
pur	-15253
news	-15254
▁overs	-15255
▁wondering	-15256
VA	-15257
vi	-15258
授予	-15259
援助	-15260
你需要	-15261
在游戏	-15262
成立以来	-15263
athon	-15264
elson	-15265
Health	-15266
▁visible	-15267
▁speakers	-15268
▁representing	-15269
微软	-15270
斯坦	-15271
细分	-15272
警惕	-15273
tery	-15274
▁vit	-15275
▁wash	-15276
▁limits	-15277
▁nursing	-15278
一经	-15279
小白	-15280
巨头	-15281
pha	-15282
三个月	-15283
在内的	-15284
有一定	-15285
背景下	-15286
▁behaviour	-15287
想着	-15288
赋予	-15289
之日起	-15290
公交车	-15291
生产和	-15292
组织的	-15293
高性能	-15294
▁Ten	-15295
▁bare	-15296
▁neut	-15297
▁Agric	-15298
▁acquisition	-15299
小姐	-15300
高手	-15301
▁PS	-15302
百分点	-15303
的城市	-15304
Best	-15305
List	-15306
▁Rick	-15307
▁resort	-15308
▁unexpected	-15309
克力	-15310
指引	-15311
员工的	-15312
▁Still	-15313
▁flash	-15314
▁overse	-15315
▁reaching	-15316
▁allegedly	-15317
放假	-15318
油价	-15319
重组	-15320
马尔	-15321
的一次	-15322
▁toile	-15323
▁tackle	-15324
个别	-15325
投影	-15326
是用	-15327
胎儿	-15328
满意的	-15329
保险公司	-15330
▁bars	-15331
光泽	-15332
南北	-15333
南海	-15334
自主研发	-15335
▁wake	-15336
▁sorry	-15337
▁weren	-15338
▁anxiety	-15339
▁heritage	-15340
十几	-15341
拿着	-15342
文本	-15343
民众	-15344
环卫	-15345
难点	-15346
Sum	-15347
aga	-15348
的最佳	-15349
▁essay	-15350
▁Quality	-15351
achusetts	-15352
▁Software	-15353
在前	-15354
托管	-15355
sex	-15356
▁Cas	-15357
主打	-15358
五一	-15359
拿出	-15360
石头	-15361
范畴	-15362
及其他	-15363
▁boot	-15364
人家	-15365
坚固	-15366
帷幕	-15367
熊猫	-15368
▁rescue	-15369
▁Magazine	-15370
LP	-15371
从未	-15372
风扇	-15373
▁painted	-15374
号召	-15375
陪同	-15376
首届	-15377
数据的	-15378
emed	-15379
▁parks	-15380
▁plane	-15381
GR	-15382
冷凝	-15383
化合	-15384
局限	-15385
度过	-15386
热的	-15387
▁dust	-15388
▁riding	-15389
▁generate	-15390
▁Therefore	-15391
▁touchdown	-15392
都不会	-15393
plate	-15394
▁ther	-15395
WS	-15396
双眼	-15397
失望	-15398
尼奥	-15399
限度	-15400
National	-15401
▁Practice	-15402
][	-15403
十五	-15404
鲜花	-15405
Prof	-15406
etary	-15407
▁Must	-15408
▁Short	-15409
▁intro	-15410
▁Despite	-15411
▁Lincoln	-15412
高频	-15413
▁OR	-15414
一般在	-15415
合作社	-15416
导致的	-15417
报记者	-15418
机构的	-15419
fire	-15420
▁Der	-15421
▁Lane	-15422
▁ease	-15423
▁controll	-15424
▁workplace	-15425
下列	-15426
▁Major	-15427
▁Marsh	-15428
人次	-15429
看似	-15430
顶尖	-15431
不好的	-15432
所谓的	-15433
在线观看	-15434
集团公司	-15435
itations	-15436
▁assists	-15437
▁western	-15438
▁appreciated	-15439
复苏	-15440
don	-15441
”**	-15442
▁compete	-15443
NS	-15444
交所	-15445
保暖	-15446
后者	-15447
预案	-15448
▁Chamber	-15449
并且在	-15450
▁departments	-15451
udi	-15452
的平台	-15453
直播间	-15454
输送机	-15455
Data	-15456
▁Sir	-15457
▁franch	-15458
▁diagnosis	-15459
▁opposition	-15460
哈登	-15461
alm	-15462
教育教学	-15463
▁trips	-15464
▁Morgan	-15465
▁Singapore	-15466
▁administrative	-15467
劳务	-15468
央行	-15469
宁夏	-15470
插入	-15471
诠释	-15472
链条	-15473
▁Ly	-15474
等各种	-15475
General	-15476
羽毛	-15477
开发的	-15478
wind	-15479
▁Mix	-15480
▁vibr	-15481
选址	-15482
在线咨询	-15483
▁Univers	-15484
?)	-15485
▁Ow	-15486
就是在	-15487
annels	-15488
▁Laure	-15489
▁proven	-15490
农户	-15491
有无	-15492
称重	-15493
防晒	-15494
最后的	-15495
▁Bab	-15496
▁Reviews	-15497
寒冷	-15498
长久	-15499
不错的选择	-15500
▁walks	-15501
▁Region	-15502
▁breath	-15503
▁theatre	-15504
抽奖	-15505
个人的	-15506
如今的	-15507
▁DNA	-15508
▁sid	-15509
▁zero	-15510
▁thinks	-15511
NC	-15512
万达	-15513
干洗	-15514
种种	-15515
▁Tan	-15516
▁packed	-15517
AE	-15518
请在	-15519
?**	-15520
POS	-15521
告诉你	-15522
都能够	-15523
▁overl	-15524
▁shipping	-15525
▁principal	-15526
提现	-15527
采摘	-15528
rac	-15529
比较高	-15530
建设项目	-15531
ounge	-15532
▁hire	-15533
或其他	-15534
等方面的	-15535
▁Sound	-15536
Thursday	-15537
借鉴	-15538
换热	-15539
等人	-15540
所需的	-15541
▁Utah	-15542
▁resid	-15543
rection	-15544
ibraries	-15545
▁algorith	-15546
作家	-15547
像是	-15548
合计	-15549
孵化	-15550
管材	-15551
Bel	-15552
▁Op	-15553
▁Natural	-15554
▁captured	-15555
▁discovery	-15556
gi	-15557
主导	-15558
结局	-15559
bie	-15560
环境中	-15561
rator	-15562
▁gate	-15563
▁refr	-15564
▁exposed	-15565
▁fiction	-15566
▁finishing	-15567
▁reasonable	-15568
▁刘	-15569
味的	-15570
支球队	-15571
程度的	-15572
▁cos	-15573
▁vine	-15574
urches	-15575
▁suite	-15576
小儿	-15577
玩游戏	-15578
▁...-	-15579
▁Ford	-15580
▁strict	-15581
▁personality	-15582
▁consultation	-15583
vs	-15584
一方	-15585
中考	-15586
省份	-15587
重型	-15588
也能够	-15589
▁Ast	-15590
Windows	-15591
▁Doctor	-15592
▁deeply	-15593
pk	-15594
清爽	-15595
说明书	-15596
▁Jean	-15597
▁relating	-15598
不适	-15599
片的	-15600
了起来	-15601
可以将	-15602
经济效益	-15603
▁amid	-15604
▁complim	-15605
▁formation	-15606
▁directions	-15607
加以	-15608
安防	-15609
溶剂	-15610
白云	-15611
能让	-15612
贴心	-15613
社会的	-15614
ricts	-15615
▁reviewed	-15616
三天	-15617
中最	-15618
倒入	-15619
医务	-15620
多么	-15621
微量	-15622
看得	-15623
).-	-15624
▁Na	-15625
▁stood	-15626
▁contributed	-15627
不利	-15628
与会	-15629
崛起	-15630
总统	-15631
更强	-15632
▁agenda	-15633
▁objectives	-15634
一共	-15635
礼仪	-15636
评为	-15637
进出	-15638
inth	-15639
▁stab	-15640
管理有限公司	-15641
就行	-15642
油脂	-15643
苗木	-15644
常见问题	-15645
▁dismiss	-15646
▁Marketing	-15647
报表	-15648
洗手	-15649
防汛	-15650
默默	-15651
▁PL	-15652
新华社	-15653
来到了	-15654
▁Cow	-15655
推荐阅读	-15656
▁Tool	-15657
owship	-15658
▁Employ	-15659
▁rapidly	-15660
▁incredibly	-15661
块钱	-15662
穿搭	-15663
贯穿	-15664
uer	-15665
非常有	-15666
▁Dub	-15667
▁Song	-15668
▁damaged	-15669
▁machines	-15670
▁phenomen	-15671
▁necessarily	-15672
反击	-15673
哪种	-15674
oked	-15675
▁Gre	-15676
▁Pers	-15677
swered	-15678
▁anyway	-15679
including	-15680
▁attempts	-15681
▁pleasure	-15682
▁somewhat	-15683
▁investments	-15684
全员	-15685
爱国	-15686
ICE	-15687
指导下	-15688
ifted	-15689
▁Nurs	-15690
▁losses	-15691
草坪	-15692
优良的	-15693
umps	-15694
▁Try	-15695
▁soup	-15696
onymous	-15697
▁spokesman	-15698
▁reputation	-15699
庭院	-15700
遥控	-15701
▁gram	-15702
▁sentence	-15703
▁conservation	-15704
▁FL	-15705
▁actors	-15706
▁Economic	-15707
一波	-15708
尤为	-15709
做一个	-15710
元左右	-15711
请关注	-15712
个百分点	-15713
Despite	-15714
▁Turkey	-15715
均有	-15716
总量	-15717
盛宴	-15718
sis	-15719
空间的	-15720
▁hal	-15721
▁Moore	-15722
▁Modern	-15723
▁battery	-15724
▁Construction	-15725
端的	-15726
▁北京	-15727
做出了	-15728
对自己	-15729
step	-15730
个工作日	-15731
▁Grow	-15732
▁keen	-15733
▁licensed	-15734
剖析	-15735
核查	-15736
下面的	-15737
年以来	-15738
科学家	-15739
June	-15740
rett	-15741
心理健康	-15742
▁supporters	-15743
▁vulnerable	-15744
▁transformation	-15745
所示	-15746
搞笑	-15747
笑容	-15748
补助	-15749
到现在	-15750
▁hun	-15751
职业生涯	-15752
acular	-15753
▁hearts	-15754
quarters	-15755
▁Detroit	-15756
▁checked	-15757
▁conversations	-15758
一半	-15759
整车	-15760
率高	-15761
相对于	-15762
▁extreme	-15763
▁controlled	-15764
▁presidential	-15765
如需	-15766
PPT	-15767
▁applying	-15768
MD	-15769
修理	-15770
就连	-15771
浸泡	-15772
电动机	-15773
▁Front	-15774
▁Alliance	-15775
发型	-15776
用手	-15777
草莓	-15778
副校长	-15779
sters	-15780
▁Being	-15781
▁smoke	-15782
▁pursue	-15783
▁日	-15784
一座	-15785
后勤	-15786
我不	-15787
TON	-15788
学习和	-15789
的使用寿命	-15790
▁Dutch	-15791
▁Linux	-15792
▁aggress	-15793
vironments	-15794
▁Challenge	-15795
▁publications	-15796
共创	-15797
学的	-15798
对面	-15799
lik	-15800
满意度	-15801
董事会	-15802
客户需求	-15803
eland	-15804
ludes	-15805
▁refe	-15806
组的	-15807
Cons	-15808
▁tut	-15809
▁meters	-15810
▁ranked	-15811
教育的	-15812
▁Ever	-15813
▁calm	-15814
▁documentary	-15815
ACT	-15816
oyd	-15817
家企业	-15818
phan	-15819
▁Bow	-15820
忙碌	-15821
担忧	-15822
水上	-15823
管路	-15824
遭到	-15825
成都市	-15826
不仅仅是	-15827
接下来的	-15828
▁hopefully	-15829
哪怕	-15830
实名	-15831
阿森纳	-15832
ashes	-15833
▁twenty	-15834
▁actively	-15835
▁emotions	-15836
从中	-15837
总数	-15838
▁OK	-15839
通过对	-15840
▁Early	-15841
版权归原作者所有	-15842
▁Represent	-15843
▁Communications	-15844
受损	-15845
总会	-15846
来袭	-15847
zed	-15848
tainment	-15849
NY	-15850
cul	-15851
▁magic	-15852
▁episodes	-15853
▁personally	-15854
MW	-15855
偶像	-15856
机油	-15857
栽培	-15858
开始了	-15859
heat	-15860
ifting	-15861
▁boxes	-15862
▁advised	-15863
▁attitude	-15864
▁affordable	-15865
台风	-15866
把它	-15867
晋升	-15868
灵敏	-15869
要比	-15870
跨越	-15871
就不会	-15872
生产企业	-15873
elfare	-15874
▁weapons	-15875
好多	-15876
rape	-15877
▁Trade	-15878
▁Update	-15879
▁陈	-15880
促使	-15881
專業	-15882
怀疑	-15883
激素	-15884
热刺	-15885
监察	-15886
欢迎您	-15887
过去的	-15888
▁dies	-15889
▁fault	-15890
▁shell	-15891
▁poetry	-15892
▁Technical	-15893
三次	-15894
煤矿	-15895
精湛	-15896
黑暗	-15897
IVE	-15898
dep	-15899
的人员	-15900
目前已	-15901
丰富多彩	-15902
▁boil	-15903
小编为大家	-15904
▁seats	-15905
咳嗽	-15906
活泼	-15907
为中心	-15908
保证金	-15909
网络安全	-15910
▁cher	-15911
orship	-15912
▁surve	-15913
Saturday	-15914
▁refriger	-15915
联络	-15916
螺纹	-15917
Both	-15918
▁Happy	-15919
▁Interest	-15920
摆脱	-15921
比赛的	-15922
都会有	-15923
Love	-15924
▁Jer	-15925
ersion	-15926
▁Oxford	-15927
中型	-15928
奇迹	-15929
心动	-15930
组长	-15931
等信息	-15932
▁Dor	-15933
上年	-15934
优美	-15935
onut	-15936
icity	-15937
▁Mobile	-15938
▁subsid	-15939
和大	-15940
实事	-15941
生理	-15942
▁bags	-15943
▁Working	-15944
ellectual	-15945
▁exceptional	-15946
聪明	-15947
▁exceed	-15948
▁greatly	-15949
一身	-15950
喜好	-15951
bra	-15952
July	-15953
bass	-15954
▁Cry	-15955
▁Heat	-15956
▁beef	-15957
▁Simon	-15958
],	-15959
临近	-15960
市值	-15961
弥补	-15962
之后的	-15963
净流入	-15964
▁mit	-15965
▁boards	-15966
你好	-15967
周五	-15968
容积	-15969
聚乙烯	-15970
▁unp	-15971
▁hors	-15972
arlier	-15973
▁Jacob	-15974
▁grace	-15975
▁chronic	-15976
ventional	-15977
上看	-15978
这套	-15979
加入了	-15980
我认为	-15981
设备和	-15982
wing	-15983
▁Navy	-15984
section	-15985
右侧	-15986
防滑	-15987
ishop	-15988
▁Cele	-15989
▁mortgage	-15990
作了	-15991
发力	-15992
西方	-15993
说起	-15994
准考证	-15995
ceived	-15996
ronics	-15997
▁clock	-15998
▁Bureau	-15999
▁targets	-16000
................	-16001
年内	-16002
是一些	-16003
有不少	-16004
污染物	-16005
的孩子	-16006
质量和	-16007
makers	-16008
的前提下	-16009
plant	-16010
▁auto	-16011
▁aband	-16012
▁enjoys	-16013
▁acceler	-16014
▁encounter	-16015
不怕	-16016
仅有	-16017
oning	-16018
▁Smart	-16019
安市	-16020
总局	-16021
潍坊	-16022
筹备	-16023
agan	-16024
sect	-16025
:****	-16026
▁lecture	-16027
▁Maryland	-16028
▁shoulder	-16029
UD	-16030
▁金	-16031
回头	-16032
机身	-16033
权限	-16034
的长	-16035
怎么做	-16036
world	-16037
▁shoes	-16038
▁disaster	-16039
,-	-16040
某个	-16041
达标	-16042
bow	-16043
David	-16044
▁overnight	-16045
▁sustainability	-16046
Je	-16047
滴滴	-16048
rec	-16049
一般是	-16050
▁Dean	-16051
▁Stories	-16052
▁clothing	-16053
▁overview	-16054
卫视	-16055
刚开始	-16056
的投资	-16057
▁unem	-16058
▁consequences	-16059
!“	-16060
富含	-16061
获胜	-16062
黄河	-16063
水处理	-16064
还有很多	-16065
oenix	-16066
usive	-16067
▁Laur	-16068
▁Talk	-16069
▁subscribe	-16070
某种	-16071
码头	-16072
赛的	-16073
超高	-16074
遍布	-16075
大面积	-16076
arma	-16077
应用程序	-16078
▁Dark	-16079
▁knee	-16080
October	-16081
▁explos	-16082
▁disability	-16083
善于	-16084
场馆	-16085
竣工	-16086
简便	-16087
%||	-16088
▁Cape	-16089
▁Leon	-16090
▁Wars	-16091
凭证	-16092
无机	-16093
rog	-16094
Tuesday	-16095
▁privile	-16096
临沂	-16097
外套	-16098
的最	-16099
行人	-16100
产生了	-16101
Life	-16102
▁Base	-16103
▁addressed	-16104
肥料	-16105
處理	-16106
越野	-16107
包装机	-16108
装修公司	-16109
设计方案	-16110
▁Buff	-16111
▁sour	-16112
▁decline	-16113
▁wildlife	-16114
一颗	-16115
单机	-16116
门户	-16117
項目	-16118
.""	-16119
▁Du	-16120
拼多多	-16121
行业内	-16122
▁Six	-16123
电动汽车	-16124
▁shed	-16125
▁elder	-16126
▁possess	-16127
▁Ark	-16128
为用户提供	-16129
▁Death	-16130
▁legacy	-16131
▁regulation	-16132
两名	-16133
加深	-16134
口的	-16135
urities	-16136
▁Palest	-16137
ologists	-16138
▁completing	-16139
▁surrounded	-16140
分会	-16141
▁Gun	-16142
▁usage	-16143
viously	-16144
两队	-16145
无效	-16146
▁bunch	-16147
ervative	-16148
▁Channel	-16149
Wednesday	-16150
小麦	-16151
武汉市	-16152
还能够	-16153
uters	-16154
▁voting	-16155
aturally	-16156
保密	-16157
想必	-16158
注塑	-16159
涨停	-16160
面议	-16161
ito	-16162
▁surge	-16163
▁passes	-16164
▁upgrade	-16165
上级	-16166
列入	-16167
皇冠	-16168
租车	-16169
准备好	-16170
▁Dur	-16171
▁Corp	-16172
▁pride	-16173
secutive	-16174
▁Scottish	-16175
▁promoting	-16176
出具	-16177
记账	-16178
是如何	-16179
▁Gov	-16180
comed	-16181
criptions	-16182
Lab	-16183
▁FC	-16184
一样的	-16185
各方面	-16186
!****	-16187
▁Michel	-16188
做起	-16189
督查	-16190
▁EN	-16191
poons	-16192
▁Single	-16193
▁wireless	-16194
▁screening	-16195
▁participated	-16196
大风	-16197
愉快	-16198
imp	-16199
活动现场	-16200
▁cute	-16201
新冠肺炎疫情	-16202
▁demands	-16203
乒乓	-16204
出货	-16205
市場	-16206
开盘	-16207
有力的	-16208
信息发布	-16209
▁falls	-16210
▁shouldn	-16211
▁evaluate	-16212
▁Unfortunately	-16213
倾斜	-16214
入门	-16215
碎片	-16216
运势	-16217
zes	-16218
在美国	-16219
的温度	-16220
rely	-16221
▁reply	-16222
▁grounds	-16223
▁concerning	-16224
!【	-16225
年纪	-16226
滚筒	-16227
胶带	-16228
专业生产	-16229
▁Jane	-16230
▁Section	-16231
出演	-16232
自治	-16233
二手车	-16234
公安机关	-16235
纷纷表示	-16236
▁Tele	-16237
属于自己的	-16238
▁explan	-16239
▁margin	-16240
▁resulted	-16241
国防	-16242
尔斯	-16243
是谁	-16244
历史上	-16245
呈现出	-16246
没什么	-16247
陕西省	-16248
▁hung	-16249
Special	-16250
▁custody	-16251
▁homeless	-16252
▁everywhere	-16253
▁’	-16254
回去	-16255
感知	-16256
可实现	-16257
▁haz	-16258
▁Gary	-16259
▁employed	-16260
对该	-16261
湿地	-16262
灰色	-16263
租金	-16264
美化	-16265
隆重	-16266
马力	-16267
了一种	-16268
edge	-16269
手机游戏	-16270
ouver	-16271
▁hitting	-16272
▁investigating	-16273
合力	-16274
屋顶	-16275
这边	-16276
流行的	-16277
主要包括	-16278
就是一个	-16279
非常好的	-16280
▁Jess	-16281
▁Credit	-16282
▁examination	-16283
▁Massachusetts	-16284
prof	-16285
▁Elementary	-16286
合规	-16287
应有	-16288
度高	-16289
竭诚	-16290
讲师	-16291
MLS	-16292
aly	-16293
rix	-16294
▁SE	-16295
业务的	-16296
▁CON	-16297
▁mood	-16298
oading	-16299
▁Build	-16300
▁Treat	-16301
▁commonly	-16302
少量	-16303
格外	-16304
侵犯了	-16305
规范化	-16306
arat	-16307
rior	-16308
▁Kings	-16309
全日	-16310
征信	-16311
过往	-16312
银河	-16313
额定	-16314
oda	-16315
的样子	-16316
▁inch	-16317
▁Standard	-16318
▁earnings	-16319
一来	-16320
权重	-16321
进化	-16322
Som	-16323
▁Mun	-16324
▁Sac	-16325
今年以来	-16326
▁Solutions	-16327
力求	-16328
原有	-16329
天花	-16330
TML	-16331
yes	-16332
▁Antonio	-16333
?(	-16334
DO	-16335
千年	-16336
温室	-16337
若干	-16338
近几年	-16339
▁rib	-16340
oding	-16341
▁unusual	-16342
名师	-16343
烧烤	-16344
管家	-16345
维权	-16346
难道	-16347
高新	-16348
▁CL	-16349
iere	-16350
▁Hig	-16351
▁Pur	-16352
Press	-16353
ython	-16354
▁Prom	-16355
apolis	-16356
▁Paper	-16357
▁impacts	-16358
创办	-16359
四周	-16360
开机	-16361
疑似	-16362
eta	-16363
大家对	-16364
的人才	-16365
目的地	-16366
▁Vin	-16367
▁gre	-16368
Welcome	-16369
▁themes	-16370
▁empower	-16371
ilitation	-16372
▁passengers	-16373
一口	-16374
大地	-16375
時間	-16376
样本	-16377
实用的	-16378
而且在	-16379
▁afraid	-16380
▁mountains	-16381
▁environments	-16382
专卖	-16383
十八	-16384
姿态	-16385
时节	-16386
走到	-16387
转账	-16388
阿姨	-16389
阿根	-16390
▁Collect	-16391
中控	-16392
了几	-16393
市级	-16394
牡丹	-16395
IST	-16396
home	-16397
有关部门	-16398
anged	-16399
▁deals	-16400
▁seeks	-16401
▁innings	-16402
▁Leadership	-16403
▁celebrating	-16404
典礼	-16405
甜蜜	-16406
vol	-16407
▁Kind	-16408
Search	-16409
stairs	-16410
▁pointed	-16411
Mc	-16412
bec	-16413
别人的	-16414
▁Shel	-16415
▁beans	-16416
▁races	-16417
▁tomatoes	-16418
套路	-16419
意甲	-16420
有任何	-16421
▁sear	-16422
September	-16423
二期	-16424
机房	-16425
West	-16426
mother	-16427
rowave	-16428
▁Coach	-16429
▁Cover	-16430
▁bills	-16431
▁sharp	-16432
但他	-16433
占用	-16434
持久	-16435
敬业	-16436
的视频	-16437
Tech	-16438
▁ratio	-16439
入户	-16440
阻止	-16441
它们的	-16442
申请人	-16443
黑色素	-16444
gement	-16445
▁abroad	-16446
▁deeper	-16447
壮大	-16448
海鲜	-16449
aver	-16450
imore	-16451
▁Bull	-16452
aughters	-16453
▁directors	-16454
▁excellence	-16455
评测	-16456
奶茶店	-16457
▁courts	-16458
▁encouraging	-16459
▁governments	-16460
仍是	-16461
总的	-16462
等产品	-16463
自然的	-16464
leep	-16465
▁Bush	-16466
▁Liter	-16467
▁Never	-16468
▁extent	-16469
▁expanded	-16470
变的	-16471
新风	-16472
过硬	-16473
的考生	-16474
▁Ped	-16475
▁refund	-16476
▁fundamental	-16477
海军	-16478
三等奖	-16479
充分的	-16480
mers	-16481
咨询电话	-16482
▁mask	-16483
▁rehab	-16484
through	-16485
▁rental	-16486
cosystem	-16487
▁generations	-16488
TY	-16489
夏日	-16490
强力	-16491
▁:)	-16492
国际化	-16493
形成的	-16494
有些人	-16495
熟悉的	-16496
结束了	-16497
阿根廷	-16498
▁Ban	-16499
▁flo	-16500
副总经理	-16501
▁hook	-16502
▁Computer	-16503
zh	-16504
对照	-16505
致电	-16506
强烈的	-16507
著名的	-16508
▁pul	-16509
▁enthusi	-16510
▁gorgeous	-16511
暂无	-16512
水库	-16513
技术创新	-16514
veland	-16515
▁Years	-16516
▁saving	-16517
▁gardens	-16518
▁offense	-16519
▁prevention	-16520
▁requirement	-16521
内地	-16522
冲刺	-16523
难免	-16524
旗下的	-16525
Google	-16526
▁Holid	-16527
▁Relations	-16528
Mac	-16529
准备工作	-16530
有很大的	-16531
▁inbox	-16532
▁creativity	-16533
用到	-16534
看过	-16535
遭受	-16536
办事处	-16537
电子烟	-16538
秘书长	-16539
▁jail	-16540
▁export	-16541
friendly	-16542
都将	-16543
的存在	-16544
▁Les	-16545
技术服务	-16546
新冠病毒	-16547
术后	-16548
雷达	-16549
▁对于	-16550
分析师	-16551
▁enterprise	-16552
吊装	-16553
超出	-16554
途中	-16555
Dec	-16556
▁urg	-16557
▁chap	-16558
▁Phill	-16559
ancouver	-16560
▁Atlantic	-16561
▁人	-16562
】,	-16563
中期	-16564
图标	-16565
撰写	-16566
赛道	-16567
mod	-16568
▁drain	-16569
▁entitled	-16570
射手	-16571
企业家	-16572
可直接	-16573
标志着	-16574
的方向	-16575
▁Arm	-16576
ifier	-16577
▁legs	-16578
▁pink	-16579
estone	-16580
ounced	-16581
▁Springs	-16582
yr	-16583
接线	-16584
牛仔	-16585
理性	-16586
usal	-16587
▁teeth	-16588
▁Easter	-16589
▁Bachelor	-16590
二人	-16591
延迟	-16592
编织	-16593
赛场	-16594
麒麟	-16595
▁Golf	-16596
▁moon	-16597
▁sizes	-16598
▁funeral	-16599
▁exception	-16600
博览会	-16601
ospel	-16602
▁gran	-16603
▁crypt	-16604
ensions	-16605
ordinary	-16606
▁coaches	-16607
▁viewing	-16608
母婴	-16609
花钱	-16610
pay	-16611
提出的	-16612
▁deleg	-16613
▁combat	-16614
▁overcome	-16615
()	-16616
尽在	-16617
的风	-16618
角落	-16619
ALL	-16620
▁OS	-16621
▁Ide	-16622
▁tub	-16623
▁Steel	-16624
▁amend	-16625
▁minim	-16626
▁mining	-16627
▁accompan	-16628
概况	-16629
mic	-16630
????	-16631
Make	-16632
wall	-16633
战略合作	-16634
scale	-16635
▁titled	-16636
光纤	-16637
合资	-16638
施肥	-16639
char	-16640
▁Yet	-16641
eness	-16642
asting	-16643
▁worker	-16644
▁divided	-16645
▁everybody	-16646
▁consecutive	-16647
一手	-16648
树木	-16649
油耗	-16650
火焰	-16651
▁>>	-16652
▁funded	-16653
▁basically	-16654
▁regardless	-16655
出手	-16656
土工	-16657
大胆	-16658
纸箱	-16659
会造成	-16660
等因素	-16661
系列的	-16662
about	-16663
▁renov	-16664
▁choosing	-16665
吉利	-16666
时应	-16667
||$	-16668
▁ly	-16669
▁现在	-16670
经济的	-16671
flix	-16672
▁Imp	-16673
▁Queens	-16674
▁Kids	-16675
▁Email	-16676
)》	-16677
互通	-16678
枢纽	-16679
电解	-16680
rets	-16681
vivo	-16682
大家都知道	-16683
▁Everyone	-16684
废弃	-16685
草原	-16686
道士	-16687
Job	-16688
均来自	-16689
等内容	-16690
▁Andy	-16691
▁Mand	-16692
▁Vegas	-16693
▁breaks	-16694
预售	-16695
ista	-16696
▁caring	-16697
▁Results	-16698
和使用	-16699
uits	-16700
▁Made	-16701
监督管理局	-16702
▁Nature	-16703
Following	-16704
▁philosophy	-16705
候选	-16706
将为	-16707
放到	-16708
车展	-16709
rer	-16710
的介绍	-16711
▁puts	-16712
lements	-16713
▁racing	-16714
以其	-16715
加班	-16716
妹妹	-16717
着急	-16718
蚂蚁	-16719
Reply	-16720
▁Explore	-16721
▁examine	-16722
分工	-16723
lee	-16724
好不好	-16725
▁Lot	-16726
acket	-16727
leton	-16728
▁prize	-16729
SK	-16730
画风	-16731
主教练	-16732
在市场	-16733
▁Ali	-16734
一定要注意	-16735
▁Visit	-16736
▁loans	-16737
▁evolution	-16738
▁comparison	-16739
伦敦	-16740
间距	-16741
雷锋	-16742
管理员	-16743
pert	-16744
不得转载	-16745
▁Trib	-16746
▁pour	-16747
▁antib	-16748
▁Morris	-16749
▁segment	-16750
▁parameters	-16751
▁collections	-16752
严肃	-16753
左侧	-16754
渴望	-16755
▁Beh	-16756
领导小组	-16757
▁Stay	-16758
▁blend	-16759
▁spray	-16760
▁Coordin	-16761
▁Edition	-16762
▁mistake	-16763
▁welcomed	-16764
▁三	-16765
人社	-16766
出品	-16767
助推	-16768
勇敢	-16769
本页	-16770
皇帝	-16771
自動	-16772
enz	-16773
▁manual	-16774
▁anymore	-16775
OO	-16776
合影	-16777
意愿	-16778
西藏	-16779
pdf	-16780
State	-16781
iders	-16782
▁preview	-16783
时分	-16784
疏散	-16785
了许多	-16786
媒体报道	-16787
▁peak	-16788
▁onions	-16789
▁veterans	-16790
▁Thanksgiving	-16791
流失	-16792
中国人	-16793
等服务	-16794
▁reveals	-16795
▁checking	-16796
▁paintings	-16797
′′	-16798
全屋	-16799
升本	-16800
漏水	-16801
的销售	-16802
起重机	-16803
Type	-16804
aceut	-16805
▁array	-16806
▁compare	-16807
下次	-16808
名额	-16809
荷兰	-16810
”?	-16811
不符合	-16812
带领下	-16813
this	-16814
▁quote	-16815
回升	-16816
Year	-16817
▁pig	-16818
专业人士	-16819
免费提供	-16820
可以看出	-16821
▁maps	-16822
▁Andre	-16823
▁pushed	-16824
▁laundry	-16825
将军	-16826
举办的	-16827
这件事	-16828
post	-16829
工程项目	-16830
haust	-16831
iously	-16832
▁survive	-16833
▁photographer	-16834
BE	-16835
ón	-16836
好玩	-16837
尔特	-16838
那是	-16839
首都	-16840
COM	-16841
▁FR	-16842
加强对	-16843
▁perm	-16844
▁depends	-16845
ationally	-16846
▁Application	-16847
楼层	-16848
溶解	-16849
手机上	-16850
bank	-16851
传递更多信息	-16852
▁admission	-16853
▁intention	-16854
延期	-16855
早就	-16856
为主要	-16857
wick	-16858
▁rug	-16859
发展趋势	-16860
如何选择	-16861
▁Having	-16862
▁latter	-16863
▁utility	-16864
▁channels	-16865
不佳	-16866
加密	-16867
品味	-16868
替换	-16869
所有人	-16870
始终坚持	-16871
orous	-16872
unate	-16873
▁Bron	-16874
▁Site	-16875
▁acknowled	-16876
省钱	-16877
联通	-16878
空压机	-16879
▁Days	-16880
▁Stone	-16881
▁prohib	-16882
▁Location	-16883
DT	-16884
倡议	-16885
ECT	-16886
杜兰特	-16887
▁Mind	-16888
▁Course	-16889
▁borrow	-16890
▁wanting	-16891
▁references	-16892
情节	-16893
过渡	-16894
癫痫的	-16895
需要在	-16896
uper	-16897
▁API	-16898
▁Gab	-16899
▁YOU	-16900
obody	-16901
▁Round	-16902
▁cinem	-16903
▁ranging	-16904
▁Portland	-16905
▁estimate	-16906
保修	-16907
先行	-16908
发扬	-16909
抗击	-16910
调理	-16911
适合自己的	-16912
▁Content	-16913
▁consumption	-16914
业态	-16915
入围	-16916
出水	-16917
在哪	-16918
▁McK	-16919
itzer	-16920
▁Prep	-16921
▁Respons	-16922
▁penalty	-16923
专人	-16924
低调	-16925
修剪	-16926
外面	-16927
格林	-16928
轨迹	-16929
公司地址	-16930
ainless	-16931
ds	-16932
户口	-16933
想要的	-16934
ificial	-16935
▁expenses	-16936
▁ownership	-16937
点点	-16938
超多	-16939
退役	-16940
比亚迪	-16941
的实力	-16942
oons	-16943
▁absor	-16944
▁targeted	-16945
▁scholarship	-16946
IO	-16947
代言	-16948
们在	-16949
会使	-16950
做工	-16951
对应的	-16952
▁Hum	-16953
▁aer	-16954
▁Electric	-16955
破损	-16956
繁荣	-16957
花的	-16958
成本低	-16959
国家标准	-16960
▁Order	-16961
▁Orange	-16962
▁appliances	-16963
导入	-16964
果实	-16965
紧紧	-16966
▁Gil	-16967
ressed	-16968
▁existence	-16969
AK	-16970
UP	-16971
定向	-16972
挤压	-16973
蓝牙	-16974
已经有	-16975
时时彩	-16976
比较大	-16977
▁Tel	-16978
Listing	-16979
VC	-16980
批评	-16981
其观点	-16982
结构的	-16983
Sunday	-16984
▁heavily	-16985
SM	-16986
价位	-16987
插座	-16988
饱和	-16989
麻辣	-16990
eras	-16991
▁Madrid	-16992
▁Scient	-16993
▁relation	-16994
▁complaint	-16995
▁provision	-16996
不等	-16997
公式	-16998
分级	-16999
問題	-17000
喷雾	-17001
画质	-17002
砂机	-17003
在全球	-17004
的人群	-17005
的话题	-17006
found	-17007
▁leaf	-17008
▁Impro	-17009
介入	-17010
倾向	-17011
好用	-17012
水位	-17013
短短	-17014
讲述了	-17015
轻松的	-17016
▁alt	-17017
▁ruling	-17018
▁reserve	-17019
▁container	-17020
▁subscription	-17021
保湿	-17022
前列	-17023
河道	-17024
百家	-17025
相处	-17026
血糖	-17027
尤其是在	-17028
▁Denver	-17029
▁divide	-17030
公民	-17031
编写	-17032
fin	-17033
免费的	-17034
年开始	-17035
疫情期间	-17036
chnology	-17037
▁worried	-17038
▁dialogue	-17039
▁province	-17040
产地	-17041
有益	-17042
享受到	-17043
Requ	-17044
▁Hal	-17045
农业农村	-17046
▁Large	-17047
▁captain	-17048
▁flights	-17049
▁hanging	-17050
aceutical	-17051
▁practition	-17052
热搜	-17053
rav	-17054
写字楼	-17055
无症状	-17056
Play	-17057
快来下载	-17058
▁sisters	-17059
▁measured	-17060
▁Available	-17061
中队	-17062
合一	-17063
过年	-17064
Dep	-17065
的良好	-17066
inst	-17067
智能家居	-17068
Product	-17069
BB	-17070
上报	-17071
寓意	-17072
导轨	-17073
ILL	-17074
防静电	-17075
▁Falls	-17076
▁Commissioner	-17077
外包	-17078
指令	-17079
残留	-17080
诱发	-17081
真的很	-17082
专业知识	-17083
Offic	-17084
▁Hawai	-17085
▁Portug	-17086
▁athletes	-17087
团购	-17088
衣物	-17089
表格	-17090
赛中	-17091
运气	-17092
化合物	-17093
如果在	-17094
并提供	-17095
而且还	-17096
flow	-17097
的可能性	-17098
Inter	-17099
▁Gall	-17100
▁tired	-17101
▁Marine	-17102
▁discrim	-17103
▁inspire	-17104
▁locally	-17105
Additional	-17106
▁Following	-17107
严厉	-17108
单品	-17109
将对	-17110
库里	-17111
据介绍	-17112
有必要	-17113
▁Kal	-17114
▁Pant	-17115
▁apps	-17116
▁poverty	-17117
▁transactions	-17118
绑定	-17119
▁Wol	-17120
经营范围	-17121
Quest	-17122
▁Deputy	-17123
叶轮	-17124
情形	-17125
那一	-17126
会产生	-17127
▁fru	-17128
▁jew	-17129
Paper	-17130
外援	-17131
恐怕	-17132
情怀	-17133
技艺	-17134
江市	-17135
ordon	-17136
quiry	-17137
▁Would	-17138
剧中	-17139
港澳	-17140
身为	-17141
饮水	-17142
▁IL	-17143
annah	-17144
▁Stew	-17145
▁scope	-17146
▁soldiers	-17147
▁arrangements	-17148
jo	-17149
发性	-17150
是将	-17151
艺术家	-17152
town	-17153
South	-17154
inkle	-17155
来源于网络	-17156
▁Judge	-17157
命令	-17158
奇怪	-17159
损耗	-17160
的历史	-17161
不得不说	-17162
用户体验	-17163
reach	-17164
▁Belg	-17165
▁soci	-17166
▁login	-17167
▁recall	-17168
▁amounts	-17169
人间	-17170
大致	-17171
文案	-17172
boss	-17173
power	-17174
▁Gree	-17175
▁gotten	-17176
。[	-17177
偶尔	-17178
缩小	-17179
的因素	-17180
也是一个	-17181
▁Records	-17182
▁applicants	-17183
▁demonstrated	-17184
全景	-17185
卫浴	-17186
带上	-17187
常年	-17188
它可以	-17189
文化和	-17190
amon	-17191
▁proved	-17192
▁wisdom	-17193
▁summary	-17194
▁meaningful	-17195
农场	-17196
电量	-17197
职员	-17198
花开	-17199
专业化	-17200
举办了	-17201
牛皮癣	-17202
进入了	-17203
▁Due	-17204
leted	-17205
▁gear	-17206
▁Analysis	-17207
▁whenever	-17208
▁continuous	-17209
东路	-17210
间接	-17211
知名品牌	-17212
▁Walker	-17213
▁decent	-17214
▁Culture	-17215
▁mistakes	-17216
保驾	-17217
持股	-17218
搜集	-17219
此刻	-17220
百货	-17221
车载	-17222
Vol	-17223
cut	-17224
的压力	-17225
这场比赛	-17226
▁bomb	-17227
▁lapt	-17228
▁Clinton	-17229
▁involvement	-17230
券商	-17231
幕墙	-17232
既有	-17233
的女	-17234
?”“	-17235
▁bone	-17236
人流	-17237
再到	-17238
分支	-17239
服务于	-17240
相关内容	-17241
August	-17242
lusive	-17243
▁Castle	-17244
▁occurs	-17245
▁wishes	-17246
▁mystery	-17247
▁computers	-17248
▁complicated	-17249
?“	-17250
追踪	-17251
Dan	-17252
获得的	-17253
也越来越	-17254
天气预报	-17255
▁chips	-17256
▁holes	-17257
▁gentle	-17258
▁entertaining	-17259
处在	-17260
打了	-17261
的可	-17262
beat	-17263
▁Burn	-17264
▁horiz	-17265
▁dental	-17266
▁dollar	-17267
hematics	-17268
▁contacted	-17269
▁engineers	-17270
▁telephone	-17271
▁publishing	-17272
专区	-17273
电极	-17274
细心	-17275
骁龙	-17276
▁Eve	-17277
▁proposals	-17278
一号	-17279
大盘	-17280
泉州	-17281
kee	-17282
不可以	-17283
没有了	-17284
该产品	-17285
[...]
